<unk>
<s>
</s>
▁t
▁a
he
in
▁the
er
on
▁s
00
re
▁o
▁c
▁w
an
at
ed
en
▁b
▁f
or
is
▁p
it
▁in
▁of
ar
es
al
▁m
▁an
▁d
▁and
as
ic
ing
ro
▁00
▁h
ion
▁to
▁l
''
ou
il
▁n
el
ent
▁re
▁g
▁0000
st
le
om
am
▁e
▁th
ol
un
ct
▁*
ad
▁(
et
▁st
ur
iv
ch
us
▁on
▁for
▁was
ly
id
ation
im
ir
▁as
▁is
ig
ce
▁he
ut
ot
▁be
ra
ers
▁''
ow
▁v
ith
▁al
em
ter
ay
▁with
ul
▁j
▁con
▁by
and
▁wh
▁r
ist
th
▁it
ver
▁k
rom
ge
▁ch
os
▁at
her
▁de
um
▁un
▁com
▁that
▁0
▁pro
ac
est
▁se
op
▁or
▁"
ri
▁from
od
av
ain
ity
res
if
oun
up
oc
▁ne
ill
ies
qu
se
art
▁his
ate
ab
ian
pe
ud
ich
0000
▁are
▁y
ber
ort
all
▁ex
ard
igh
▁0000,
ld
ere
ore
ak
ag
ess
ant
ap
▁ro
▁le
▁were
ub
ated
▁sh
ia
ect
ip
ive
▁pl
ial
▁en
▁ar
gh
ary
ment
ov
ie
ine
ast
▁which
ell
der
▁us
ame
ong
ost
ure
ical
our
ish
cl
ire
▁wor
ust
uc
ther
▁comp
▁cl
og
ight
▁af
),
▁this
▁not
so
mer
000
▁0000.
ran
▁had
▁ad
▁000
ome
▁whe
▁ap
the
▁(0000
▁sp
ions
▁new
pt
ous
end
▁man
ear
age
▁mar
ave
ord
pl
per
▁also
ry
.0
are
iz
rit
ass
▁cont
▁part
▁ac
ack
▁fir
▁int
▁ser
ign
▁ab
▁all
▁has
man
▁ra
▁sc
ue
▁first
ide
▁its
ount
ok
▁res
▁one
wn
ice
▁per
▁but
▁comm
▁their
ater
▁can
▁tw
port
ult
ib
▁el
▁col
own
ally
'',
▁–
ond
ition
ations
).
land
▁year
▁after
▁ind
ime
ff
act
▁other
ence
ens
▁who
ric
und
ile
▁have
ren
ang
ree
ould
▁rec
▁te
hed
▁im
uct
▁bec
over
clud
▁su
ach
▁ag
ory
▁they
ates
ph
▁inter
out
old
▁dis
ugh
▁pr
▁her
▁two
▁pres
,000
ke
fer
▁bo
▁includ
for
▁cent
▁fe
ks
one
ational
uring
ite
▁there
▁me
▁des
ely
ade
ace
te
▁sch
ound
▁been
▁pre
we
amp
ne
▁up
ents
ited
▁act
ubl
ts
▁out
aw
▁jo
.0%
ood
vel
▁ev
▁sy
▁she
▁over
▁co
▁play
able
ose
ces
▁i
▁par
ild
▁gro
ough
▁when
▁bl
▁pol
▁off
ican
▁qu
ug
ool
ors
▁under
▁fl
▁ph
▁car
▁tra
▁spe
▁gen
▁more
ased
▁count
les
orn
ied
▁reg
▁pe
▁we
ase
iss
cess
▁00,
ind
ted
▁during
▁into
▁some
▁am
▁sup
▁sec
▁eng
ath
▁war
ance
▁nor
ivers
▁most
▁amer
▁ed
▁may
▁ear
▁time
ons
▁att
ember
urn
▁bet
▁mus
▁cons
▁kn
ve
▁ass
▁tr
▁-
▁pop
ress
▁ma
ward
ake
io
▁sou
ings
ton
▁loc
als
▁bro
▁inc
ouse
ft
▁no
way
ms
▁city
▁school
▁years
▁br
hip
▁bu
▁serv
gan
▁gre
▁char
▁op
red
ail
▁used
oll
▁em
▁prod
▁publ
ious
▁so
ans
▁only
▁min
ck
▁sub
▁him
▁work
▁would
ular
▁air
▁fil
▁world
▁such
aus
▁rel
▁will
▁gr
ep
rans
▁how
''.
oth
▁thro
▁(0000)
rib
▁po
ident
▁stud
ween
▁acc
▁fin
▁mon
▁form
▁med
olog
▁high
ick
amil
▁between
cial
ict
▁house
▁american
pro
gr
▁univers
▁many
▁dist
▁than
ics
▁trans
ince
ative
▁lar
▁through
▁z
ix
ished
tern
▁do
▁rem
ten
ating
che
▁rep
ins
▁num
▁ter
hn
form
▁gu
▁gener
ral
ron
▁prov
ale
ys
int
▁elect
▁li
ual
▁where
▁inst
▁ret
▁**
overn
▁mod
ced
▁00.0%
iel
▁later
ities
▁these
ork
att
▁dr
▁town
▁sm
ury
▁govern
▁states
ific
▁about
▁united
▁again
▁mov
ollow
▁made
▁def
ement
iver
▁cap
ier
ision
ject
air
▁met
▁three
▁while
.00
ction
iet
▁call
▁u
▁state
–0000
ower
▁cre
▁follow
▁them
▁art
br
stem
▁ent
▁found
▁inv
▁end
▁0000)
fore
▁hist
ann
▁record
ople
pos
▁north
▁str
son
▁then
▁national
".
",
▁set
ines
▁well
ah
ames
▁known
ern
az
ever
▁sur
▁colle
▁system
ert
▁famil
ev
▁bel
▁second
uary
ife
▁group
▁south
▁people
▁university
."
velop
ery
ulation
ob
▁age
▁film
▁oper
its
iam
▁pos
▁add
ss
▁main
▁became
ism
round
led
▁being
▁however
emb
igin
ather
▁john
ution
▁sing
▁fran
▁including
▁rele
▁both
▁alb
▁develop
ise
▁day
▁dep
uction
▁sim
▁show
▁lead
▁dire
oy
▁est
cc
cy
ature
ived
ley
▁ob
fl
ield
ures
▁sa
ger
▁aut
con
▁four
▁dif
ved
▁soc
▁sever
▁origin
ty
▁const
▁appe
ute
ually
other
▁dec
ason
▁arm
▁var
▁bar
▁ger
▁nov
▁writ
sh
▁series
▁compan
▁brit
▁cor
iving
▁before
ists
ock
ik
▁old
▁#
ause
▁rev
iew
▁own
▁area
▁any
▁team
▁number
min
enn
▁ge
▁sl
▁king
▁sign
elf
▁use
til
rol
▁long
▁la
ient
cept
ank
▁name
▁music
▁ext
▁since
ized
▁mil
inn
▁$
▁county
▁*''
▁government
▁commun
▁intern
▁called
▁direct
▁maj
ract
uro
▁population
▁exp
▁cro
▁album
▁until
ales
urch
▁cr
▁red
uch
▁public
uss
▁pers
ired
▁early
▁av
▁design
▁har
▁back
▁0,
▁several
ars
▁ann
▁offic
▁land
imes
▁line
▁german
ina
ful
▁go
▁sw
ered
amed
▁mat
ined
▁west
ible
▁ty
▁major
▁against
▁jun
lish
ared
ained
▁book
▁cur
▁comple
▁port
ural
ull
get
ically
▁contin
to
▁open
▁(0000–0000
▁child
▁eff
ives
▁val
ional
▁suc
gram
▁cour
ility
▁dem
▁song
ium
ange
ting
arch
uced
▁ever
▁family
ket
▁ke
ple
▁same
ister
▁law
ues
oot
▁if
▁mill
▁support
▁class
▁gl
ball
▁'
▁each
▁band
▁0,000
▁cal
▁vers
▁program
▁run
▁differ
els
ried
▁near
▁game
▁bus
▁award
▁.
▁che
▁polit
▁div
▁ir
▁company
▁leg
ird
eter
bo
raph
rist
▁hel
▁organ
ash
▁small
xt
erv
▁build
-00
co
ital
▁general
▁aust
aking
▁island
pect
▁british
▁river
ark
▁former
be
▁york
▁pass
por
▁century
▁euro
▁pat
▁occ
by
▁because
▁stre
ology
▁following
▁mid
▁disc
gest
▁adv
▁:
▁jan
▁spec
▁tel
de
ica
ants
ission
▁charact
▁camp
▁great
ble
▁0.00
▁ins
ided
ages
▁househ
ged
though
▁head
▁ii
▁ju
▁result
▁rad
▁del
ains
▁park
com
▁tre
ai
▁now
▁power
ued
bert
▁lit
me
▁those
ove
ised
▁fre
▁partic
▁president
au
▁party
▁along
ling
hen
yn
ped
ilt
▁did
▁rom
▁return
▁down
▁ep
▁order
▁mag
▁&
▁rece
▁start
▁home
▁could
▁0.0%
▁desc
–00
ator
tle
rict
▁season
▁hum
chn
ene
day
▁east
ians
▁europe
▁ste
inc
▁life
▁church
▁es
▁just
▁success
▁right
▁released
▁present
ink
▁although
▁often
ane
yl
▁bas
eng
▁bre
rent
ugust
▁stand
▁memb
▁station
▁coun
▁tit
▁international
▁began
▁batt
▁conc
▁around
ris
▁rail
ode
▁prot
▁canad
ps
ices
ril
▁prev
▁christ
ended
▁ref
▁common
ats
▁large
ham
oci
hor
▁like
▁je
ets
▁prof
ize
▁prom
▁another
▁water
▁oct
▁consid
▁lo
▁sk
▁march
ret
▁app
ience
ober
ptember
▁trad
▁sol
▁place
▁(0
▁non
ony
angu
▁local
▁rest
▁best
ior
que
▁due
▁appro
atic
▁members
▁though
▁last
▁way
ott
▁phil
▁requ
▁$00
ax
rench
▁x
▁august
▁english
▁service
▁fem
▁vol
▁cond
▁history
▁even
ek
resent
sc
▁far
▁associ
gy
ague
rop
▁equ
ments
aving
na
▁techn
ival
▁wom
ner
ently
ring
▁er
omet
▁road
▁june
ille
▁vis
▁named
▁estab
▁within
▁vill
▁september
▁black
aced
▁allow
▁death
▁household
▁incre
▁histor
▁college
▁white
aim
cem
▁short
hes
▁based
omin
apan
▁left
▁make
▁fore
▁accord
▁mer
▁(00
▁control
▁won
▁october
iod
▁different
▁july
▁person
▁post
▁still
▁arch
ides
▁children
bs
cember
par
▁top
▁dra
ll
idge
ately
▁january
ively
▁living
▁list
▁pri
iety
▁hand
▁langu
aster
▁report
▁french
wh
▁squ
▁april
ondon
▁william
▁every
▁lab
▁press
▁club
▁among
▁geor
ified
▁very
▁ang
▁include
▁pa
▁built
▁much
▁you
ford
ily
▁(''
▁addition
iven
ograph
▁army
ality
gen
▁foot
▁mo
ien
let
▁fact
▁six
-0
▁care
ster
▁austral
▁champ
▁my
▁refer
ention
ese
med
itions
▁ant
▁net
▁lat
▁conf
▁located
▁event
▁november
▁december
▁japan
-0000
▁period
▁tri
▁character
▁tem
▁crit
▁played
iness
▁conv
▁son
▁engine
▁district
▁original
▁london
ler
▁according
ards
▁league
ness
▁milit
▁took
af
▁single
ney
▁manag
rod
▁sen
ization
▁mount
sp
▁represent
ship
▁effect
▁men
▁five
mon
cil
▁repl
▁what
▁stat
ino
li
ody
ially
uck
read
eder
▁poss
▁nort
▁author
estern
▁$00,000
▁member
▁said
hing
▁iss
▁exper
▁import
ief
▁educ
▁field
▁cult
ze
▁expl
▁fun
▁turn
▁country
akes
conom
▁ship
▁gra
▁00,000
bur
▁youn
augh
▁times
bruary
▁beg
▁special
▁held
ored
▁center
ata
▁late
▁current
ample
▁hol
▁afric
ries
ald
▁dav
▁roy
ilar
▁led
▁*0000
▁sum
▁resp
ning
▁hy
▁popular
▁lim
▁rock
ma
▁using
▁published
▁project
▁nav
▁aver
▁included
alth
▁command
▁bra
tal
▁vict
▁million
▁conn
▁third
ves
▁los
▁inf
mar
▁(0000–0000)
▁process
▁hal
▁mor
gress
▁econom
ec
work
▁street
▁vi
ured
'')
▁hen
▁development
▁aff
ining
▁eas
▁february
ung
▁court
▁chang
▁kill
▁profess
▁attack
▁star
▁bor
▁telev
▁central
▁broad
anc
▁similar
▁point
▁infl
▁fr
▁win
▁fur
ument
▁rese
ected
▁constr
▁test
lo
raft
ivid
▁light
▁fac
▁version
▁social
▁sold
▁cast
▁det
▁cle
▁business
▁san
▁military
ches
▁mot
urs
▁describ
▁ren
cent
▁prim
ection
▁perform
ration
▁building
born
ius
▁indust
line
▁force
▁depart
uk
▁russ
side
▁instit
epend
▁income
▁level
▁hig
ases
▁television
▁side
ama
alk
▁example
▁modern
▁dev
pg
▁individ
▁received
▁political
empt
▁council
oph
ae
▁0.00%
▁init
▁few
ison
▁(0000),
▁player
mit
▁sal
▁average
▁vot
▁miss
ven
▁appear
riend
inning
▁various
▁capt
▁tro
▁bur
bor
▁final
▁role
▁become
posed
uted
▁community
▁hall
▁given
▁claim
ones
.,
▁imp
▁games
▁pal
▁cir
ges
▁month
▁civ
▁father
▁sit
ett
▁rich
▁good
▁england
▁born
▁view
▁00%
▁comb
ories
aren
▁gold
▁battle
ertain
▁royal
▁union
gether
▁together
▁introd
self
▁word
▁vir
▁epis
▁mass
dom
▁western
▁typ
ements
▁tradition
▁cross
cle
:00
lished
▁without
▁served
yle
ele
▁human
▁real
ots
▁inform
ering
▁cover
▁came
ploy
▁radio
▁feature
lin
▁republ
▁clos
▁champions
▁market
▁women
▁grand
▁independ
▁village
craft
▁need
ox
ront
▁ital
jpg
▁invol
▁production
hern
▁less
ming
▁having
▁super
osp
▁compet
▁free
▁dest
go
▁file
▁football
ray
iding
sk
▁region
▁nat
▁cat
olution
▁beh
ript
▁low
ara
ays
▁deb
▁language
▁mark
ex
▁base
uce
▁bill
▁perfor
amer
▁further
ched
▁influ
▁established
▁story
▁ve
row
▁don
▁take
ape
vers
cast
▁considered
▁0000),
less
▁mem
xim
umb
▁civil
▁roman
▁hon
uel
▁feat
aint
adem
▁compos
▁next
▁ber
▁read
▁hill
aining
▁mult
▁research
▁somet
▁previous
▁tour
▁office
▁division
▁announ
▁created
▁activ
▁cens
▁appl
app
▁married
ops
▁particular
▁never
▁bi
▁minister
▁di
▁ill
▁attempt
▁space
▁james
▁died
aken
ither
▁fire
▁cou
ana
▁arg
▁uk
▁0.0
▁official
▁full
▁que
▁title
▁students
urb
▁works
▁median
▁george
str
ville
▁du
of
▁dou
▁pract
▁hous
▁important
rote
▁mich
ably
thern
hod
▁produced
▁households
▁sent
▁ident
▁sym
▁northern
inted
▁friend
▁den
▁product
▁cy
wards
ency
most
▁feder
▁der
▁caus
rest
orts
▁phys
▁academ
▁fall
▁young
▁society
▁commit
field
▁ten
dle
▁brother
▁america
sequ
eum
▁green
off
pr
itar
▁host
▁moved
▁site
▁coll
▁mal
▁sel
▁canada
rew
▁case
▁god
▁0000–0000
▁total
▁census
▁plan
▁days
amb
▁forces
▁sound
▁,
▁lou
ogn
▁priv
▁should
wor
▁live
ways
▁mun
▁thom
▁sug
▁heav
reek
my
▁term
▁france
▁ide
▁southern
▁night
▁older
▁wind
▁european
▁interest
▁decl
▁areas
▁sil
ached
▁wood
▁went
▁mc
▁museum
▁usually
▁avail
▁education
▁admin
aff
ological
▁size
lex
▁position
▁written
▁wrote
▁performan
gre
eth
▁must
▁proper
ross
wood
ael
▁cop
▁others
▁sat
ule
▁lake
ctor
▁dam
▁body
▁anim
▁exist
▁mater
▁grad
utes
▁lib
▁services
▁race
▁continued
▁david
ha
▁developed
iforn
▁championship
▁jud
ending
▁belie
den
iment
▁indian
▁once
bl
▁cost
▁does
play
▁mart
▁struct
ints
▁coast
▁—
▁hold
used
omb
nd
▁paul
▁see
▁front
▁grow
▁00-
ifornia
ta
▁model
▁vide
▁invest
▁lost
ead
▁(0000).
▁career
▁earl
▁defe
▁constit
ination
pan
ences
olic
▁hor
▁himself
▁relig
▁0000–00
▁fail
▁separ
band
▁sour
▁offer
▁half
▁relations
–0
aper
▁fort
▁produc
gin
▁species
▁science
▁aircraft
▁kingdom
▁treat
▁rul
uf
▁little
▁mean
▁hit
ying
idence
▁appeared
▁available
ico
▁board
▁ground
▁jour
aut
▁california
▁mur
ples
▁commission
▁strong
iation
▁records
▁fund
anish
sy
▁secret
▁largest
▁election
▁instr
▁upon
▁families
▁information
new
▁sam
ping
▁proble
▁00.
▁ver
▁hard
ances
▁pur
itor
cher
▁bank
▁week
▁formed
ka
▁association
▁jack
uit
icle
▁square
▁find
▁making
la
▁comput
▁method
▁announced
kn
▁jew
▁emp
istic
▁tur
▁circ
west
▁mac
▁returned
jo
rap
▁seen
ense
▁express
▁network
▁ball
nal
erson
▁female
▁sun
▁pot
▁suff
ucted
cer
▁department
▁director
ago
▁voc
▁route
▁sea
ication
ows
▁robert
▁aud
▁desp
▁centre
▁charles
▁cup
▁administ
ament
ators
▁originally
▁material
burg
▁appo
▁started
icip
▁pet
▁wife
vir
ocr
ids
▁railway
▁systems
hem
▁promot
cially
▁thus
▁throughout
▁liter
▁parl
▁exec
arn
ware
▁health
ours
▁commer
▁middle
▁australia
▁cell
iction
cis
▁standard
roy
▁fight
▁laun
itive
▁mic
ential
aign
▁opened
,"
▁bay
▁tor
▁arr
..
ificant
▁founded
here
▁wall
▁00.0
▁meet
▁mother
▁anc
▁employ
ability
▁big
ification
ique
key
▁hot
▁doc
▁;
orm
▁wil
▁anal
▁impro
▁germany
▁obs
▁either
▁schools
▁pen
apt
iament
▁eventually
▁novel
▁sn
ey
▁wat
▁recogn
▁(0000–0000),
▁fle
time
▁type
bc
▁put
▁news
▁campaign
▁get
▁significant
anted
▁successful
▁phot
▁chief
▁japanese
▁stri
ensive
-000
▁princ
▁bal
▁eastern
▁liber
▁00.00
▁recorded
▁agre
▁earth
▁bir
▁african
▁tom
▁step
▁described
▁gun
▁parliament
▁vo
ership
▁hom
▁(000
▁christian
▁wid
hel
▁range
men
▁video
▁instead
uals
▁rather
ipp
▁india
ened
▁across
▁dut
▁access
▁object
▁despite
oney
ades
▁fest
▁release
▁suggest
not
rie
ole
▁cath
▁pain
val
ergy
ctions
aces
▁tex
▁taken
▁enc
▁polic
▁round
▁key
ceed
▁lower
▁trib
isc
▁becom
hib
▁eight
▁working
▁police
rian
ising
▁territ
▁rob
▁study
▁below
stand
fe
▁review
▁groups
▁love
▁units
aps
gl
▁et
▁episode
▁sometimes
▁guitar
▁native
year
ls
itz
▁rights
▁construction
▁ach
▁daugh
inese
▁know
acy
ude
▁thomas
ishing
▁mel
ellow
▁sem
▁sus
▁federal
face
han
▁entire
▁capital
▁frequ
▁today
▁countries
rary
▁style
▁airport
▁followed
▁magaz
▁transport
berg
elling
▁mary
▁books
▁cit
▁township
▁0.
head
▁bridge
asing
isl
▁movement
▁canadian
ula
▁above
inal
▁fa
aker
▁data
road
▁chann
ensity
ca
▁track
▁months
▁past
▁change
▁municip
▁performance
▁pan
▁china
ams
▁designed
ume
outh
▁("
ston
iers
ania
▁washing
▁hus
▁contrib
▁discover
ply
ography
ym
▁broadcast
▁theat
▁elected
▁lord
onment
▁subject
▁fer
▁henry
▁0:00
fic
▁colon
▁opt
▁seven
▁songs
▁subsequ
▁natural
▁generally
ilities
▁introduced
▁gar
ga
▁events
▁includes
▁louis
oss
▁mach
view
▁males
ught
wer
▁summer
▁features
▁pit
pecially
▁tar
cks
ought
▁ran
▁parts
▁particip
▁cho
atory
▁gir
ita
▁meas
▁fig
▁frank
▁races
aries
▁washington
▁food
▁fut
oviet
▁possible
▁worked
▁richard
▁envir
▁reb
▁reported
▁assist
▁mix
▁joined
▁females
▁log
▁democr
▁consist
icated
▁remained
▁let
▁almost
▁ben
▁km
ications
▁bud
▁pay
▁dig
▁chinese
▁fav
▁close
▁away
▁princip
▁saw
erous
▁committe
▁tv
▁occur
▁replaced
▁cut
▁ut
▁training
▁neg
uation
▁private
▁respect
▁governor
▁alex
▁surv
▁ox
▁deter
▁foc
▁viol
▁look
▁accept
ari
ores
▁image
▁blue
ope
▁action
▁transl
amous
▁points
ux
▁rank
▁michael
▁hun
▁theory
▁say
▁least
ky
ician
▁help
▁gave
▁leading
▁performed
▁independent
▁regular
imate
itect
▁higher
▁travel
▁respons
arily
aves
▁ham
ba
▁angel
▁function
▁congress
back
tt
▁oppos
cing
ems
▁able
ush
▁match
▁account
▁featured
ida
▁mad
oms
oor
▁acqu
▁achie
▁conserv
▁000,000
like
▁fif
▁certain
mp
▁regard
▁empire
oon
")
chan
▁pac
▁cand
▁itself
▁connect
nes
lect
▁soviet
.''
▁valley
▁anti
▁brown
▁0000:
▁scott
ateg
▁card
mal
▁peter
▁soon
sec
▁provided
▁stage
▁especially
▁leader
▁media
don
ufact
▁republic
ving
▁individuals
enth
▁traditional
▁0–0
ya
▁architect
▁prem
▁flight
▁dom
can
▁corn
▁critic
▁contract
▁mex
▁nar
▁ze
iting
utions
tic
ij
▁foreign
▁“
ference
▁killed
▁magazine
▁distrib
▁economic
▁australian
▁hosp
idents
▁outside
▁eth
▁players
ground
igned
ander
▁scient
▁beginning
▁imm
▁manufact
▁color
▁navy
▁ce
▁trade
▁energy
utive
▁tax
▁sex
▁journal
medi
rick
▁stra
▁density
▁whose
▁institute
ont
▁quest
car
aged
▁means
▁bran
▁technology
▁studies
▁syn
▁plat
▁jose
une
▁spanish
ror
▁corpor
well
▁husband
▁domin
ste
▁professional
▁section
▁smith
▁committee
▁complex
▁provide
▁dan
▁ca
▁industry
▁francis
▁catholic
▁appointed
bour
▁poet
▁paris
▁daughter
▁ara
airs
enue
▁prior
▁q
▁prime
▁deal
▁playing
▁commercial
▁000,
oper
▁plant
right
▁environment
▁bow
ria
▁limited
lit
▁primary
▁added
▁library
▁festival
▁gard
hood
lands
▁exam
▁actor
▁mont
▁accom
▁maint
▁except
▁victor
▁occup
har
tra
ength
▁future
.)
▁unit
▁esc
▁ire
▁bat
ked
▁arts
aching
▁operations
dr
col
▁soft
▁famous
▁forest
ires
atives
▁tim
▁virgin
▁completed
▁emb
▁russian
▁shows
▁destroy
hest
see
▁come
▁too
▁brought
▁van
olf
asion
▁academy
▁speed
▁self
▁concept
▁minor
▁culture
▁emer
gu
▁required
▁neigh
▁wal
ends
▁cam
▁prop
rup
▁involved
▁italian
▁assemb
▁edition
▁multip
▁sports
icles
urity
▁via
▁veh
ension
odes
▁legisl
ike
▁sand
ging
▁plann
▁rap
po
▁abs
▁ly
▁00.00%
▁cele
edy
▁saint
hy
bit
rial
orial
▁mission
bers
▁altern
▁currently
king
▁films
▁allowed
etic
wing
arian
▁province
▁clear
uz
▁0000).
▁terms
▁revolution
▁collection
▁bul
▁channel
▁organization
▁approxim
ned
▁border
▁relationship
rel
▁remov
▁cd
▁break
gon
▁cust
▁computer
▁management
▁psy
▁schol
▁chap
▁pun
▁sir
orpor
▁ban
▁lines
▁staff
▁mountain
writ
iff
▁characters
▁adop
ream
lant
▁philos
ii
▁stated
▁stop
clus
ram
▁thought
▁ireland
▁cred
▁dyn
oke
ites
▁changed
▁earlier
ny
▁drum
▁pil
▁ord
▁africa
▁medical
▁ha
spe
asons
▁cab
▁fair
ishop
▁queen
▁sett
reen
▁ey
ee
▁writing
▁concern
lim
ada
▁chic
▁singer
tar
ficult
known
▁reached
▁greek
▁prob
▁penn
▁heart
based
anded
cul
▁individual
▁ess
hol
▁nation
▁islands
▁ast
no
▁cra
▁signed
▁associated
▁difficult
▁loss
rael
▁hospital
▁mos
▁spring
▁purch
▁text
▁transfer
▁chem
▁master
▁referred
olk
▁spread
▁prince
reat
▁increased
ibility
▁behind
▁historical
▁structure
▁pie
▁spir
▁alone
ios
▁code
put
▁finan
ump
▁temper
▁swed
▁theatre
0,
ingu
▁establish
▁decided
lying
▁0000-0000
enced
▁box
▁/
aur
uments
▁lay
▁writer
▁document
acher
▁operation
ucle
▁inte
▁musical
urban
▁religious
bon
▁money
▁student
▁glob
▁inn
alled
▁pacific
ift
▁chart
▁texas
▁additional
▁celebr
rd
▁heavy
▁fourth
ady
▁carol
▁nomin
▁pow
▁personal
▁majority
erve
▁chair
hab
▁larger
▁consider
▁bad
gree
▁walk
ero
▁emper
▁male
board
▁ancient
▁names
▁prison
hi
elled
ini
▁pred
eral
▁here
▁candid
▁constitution
▁0-
▁paren
▁surround
▁collect
▁particularly
▁studio
▁mechan
iences
ota
ready
▁complete
▁settle
▁termin
▁policy
▁honor
inct
▁related
▁lack
ask
war
▁boy
▁gall
▁whom
ili
▁changes
▁placed
▁gal
▁bass
cont
▁woman
aled
▁towards
▁equip
▁caused
umn
▁movie
▁pra
▁location
▁source
with
▁birth
▁housing
▁=
▁bound
▁psych
▁security
uated
mission
▁britain
uff
reme
▁oly
▁iii
oid
▁flor
▁pict
istan
▁taking
▁inj
elves
aring
▁stone
▁$00,000.
▁keep
▁element
rad
▁evidence
lor
▁longer
▁active
▁sequ
tv
▁forms
▁cities
▁amount
▁numerous
vert
▁better
▁ult
...
▁olymp
▁might
▁issue
▁exc
▁subst
▁previously
▁sant
▁iv
riage
▁mr
▁rate
▁react
pa
▁highway
star
sw
▁highest
▁practice
▁train
▁percent
▁labor
▁bomb
▁peace
▁buildings
▁blood
▁oil
▁move
▁bene
''),
▁irish
ken
▁uses
▁our
ques
▁nature
bol
▁ens
rated
da
▁legal
part
porary
▁quick
▁cases
▁initially
▁officer
▁scot
▁always
ado
▁awards
▁companies
▁already
▁investig
met
abor
▁castle
▁chicago
vey
▁joseph
▁lie
▁ris
▁israel
▁meaning
▁tal
wa
▁teams
▁emperor
▁magn
▁degree
use
▁reve
aland
bre
▁micro
▁artist
▁immedi
▁remains
▁squad
▁ur
▁influence
▁date
▁martin
▁interview
▁programs
▁annual
▁course
asc
▁cause
▁ol
▁stations
▁surface
▁recent
▁awarded
mselves
▁electric
itch
▁kore
tered
ider
atively
ulf
▁words
▁dead
▁nucle
▁burn
ify
▁themselves
▁link
sm
▁dark
▁runs
▁fel
▁kar
▁wild
▁numbers
za
▁campus
change
▁finally
▁hours
▁progress
rem
isher
▁brand
plement
▁regional
▁secretary
istry
▁newsp
▁approximately
▁lik
ters
▁value
▁rule
▁seat
▁upper
▁***
▁believed
▁bc
▁amb
▁require
erved
rying
▁bird
▁stad
olit
▁haw
inary
▁lived
american
inet
▁gas
bridge
▁autom
▁rat
town
▁tun
▁quar
ds
▁length
▁guard
▁directed
▁ended
oo
▁closed
bury
win
ona
eg
▁financial
▁atlant
▁happ
▁give
▁typically
▁languages
▁specific
▁greater
ola
▁contains
onstr
lam
▁captain
▁appears
▁separate
▁stock
inent
rief
house
▁flag
▁therefore
▁vocals
▁cer
▁issues
▁italy
isions
izing
▁running
▁bell
▁variety
▁increasing
ties
▁problems
uth
▁complet
rich
▁owned
▁actress
▁miles
iance
▁jer
▁alle
▁historic
▁increase
standing
▁territory
▁troops
▁0000;
▁edward
▁weap
▁administration
▁mess
▁electron
iant
cript
uge
▁someone
▁mostly
nel
▁farm
dra
▁shown
▁recording
▁create
mitted
ros
▁ec
mod
▁property
▁conference
▁forced
▁claimed
▁residents
▁railroad
▁continu
▁da
ena
▁drop
▁remain
▁angeles
▁opening
▁display
▁columb
▁citiz
▁defeated
▁mile
oura
▁discuss
▁motor
▁integr
▁prevent
▁paper
▁jim
▁necess
▁incorpor
▁results
▁passed
rast
▁manager
▁detail
▁pack
▁winn
▁ho
▁appearance
▁indic
▁qual
▁exhib
famil
▁zealand
/00
▁latter
▁status
▁focus
pected
▁mir
▁disp
▁asian
▁$0
▁estim
▁launched
ura
▁cart
▁jewish
▁nearly
light
▁industrial
▁chall
▁ships
▁ven
gar
ote
▁kh
▁..
▁democratic
▁visit
▁room
ulated
▁latin
▁elements
ker
▁face
▁flow
▁engineering
ington
▁confl
wide
▁block
▁republican
vi
▁constant
sch
▁professor
▁noted
mark
▁target
▁assembly
▁enough
▁elev
ffic
▁foundation
ricult
▁virginia
▁nine
onse
enc
▁arab
▁whether
▁stadium
▁arran
▁screen
▁dog
ledge
▁crew
▁thr
▁supported
▁baseball
▁cas
▁wide
▁poor
ysis
▁takes
▁webs
▁lic
▁done
▁protest
▁mathem
▁ath
▁wa
▁georg
▁rang
▁proposed
▁dise
more
eks
▁producer
▁smaller
▁authority
▁brief
▁your
▁got
▁insp
mir
▁directly
▁path
▁artists
▁operated
gypt
aded
▁hop
▁metal
▁reason
▁ded
▁ba
▁era
stra
sen
▁decision
rey
awa
▁politician
▁goal
▁agricult
ette
▁medal
▁nations
ression
▁article
▁mention
▁cultural
▁obt
▁letter
▁coach
▁laws
▁mexico
▁die
▁fleet
▁becoming
aches
▁sav
▁deliver
▁provides
eds
▁contem
bi
▁executive
▁deep
▁finished
resp
);
▁reform
▁duke
iano
igan
▁shot
▁drug
ja
▁beach
uries
▁offered
▁corps
▁subsequently
▁stories
pose
▁problem
▁products
older
itation
▁winter
▁conditions
▁lee
▁produce
▁commonly
▁lin
▁observ
▁imper
▁spirit
och
▁silver
▁racial
▁saf
▁iron
azz
▁diss
▁makes
▁activities
ands
▁pap
ylv
▁failed
ua
oned
ously
▁bab
▁victory
▁effects
▁branch
▁bon
▁multiple
▁rot
ala
▁naval
sa
bro
▁debut
itude
▁competition
▁web
▁whole
▁protect
oe
▁address
▁justice
▁carried
▁physical
ips
▁spent
▁infant
ano
▁vote
▁places
▁growth
▁types
▁houses
▁oh
▁makeup
char
down
ils
▁software
▁fra
▁00–00
▁double
▁friends
imin
ech
▁ib
▁000.
▁(0000-0000
iles
▁idea
▁weeks
▁experience
chester
list
▁yet
▁philosoph
gers
▁brig
▁marriage
▁label
▁response
▁egypt
isation
▁starting
▁wel
ental
▁voice
ani
zil
▁ice
▁digital
▁nick
arm
▁interp
▁beat
▁mob
▁anth
▁register
▁wrest
▁coal
rier
▁spain
▁levels
▁ic
▁dance
▁going
ugg
ki
▁sac
▁meeting
▁$000
▁turned
▁luc
uate
▁resour
▁widely
▁comment
▁doctor
▁machine
mas
ellig
▁attract
▁stan
▁memorial
▁urban
where
▁liberal
add
▁bob
arters
▁mcc
▁dun
astic
▁commander
▁florida
bar
oma
▁peak
agn
▁leaving
▁kind
▁counter
▁highly
▁murder
ylvania
fect
▁mayor
▁freed
▁map
▁temple
ols
▁portug
▁entered
anced
▁pressure
▁hur
gs
▁jul
▁enem
▁notable
kins
▁dutch
▁russia
▁custom
stein
ables
gely
ients
▁bbc
▁prize
▁maxim
▁()
mann
▁winning
▁tower
▁true
▁remaining
▁stars
▁lif
hist
▁sens
▁behav
▁adj
▁corporation
dro
ipl
undred
▁editor
▁scene
▁householder
▁mut
–000
uis
▁bring
▁primarily
▁twent
▁jones
▁crown
iana
oston
▁fellow
▁couples
▁consum
▁oce
▁williams
▁ta
km
rative
▁mind
▁orche
class
▁conver
ella
▁compl
▁nearby
aught
▁carl
fit
ession
▁avenue
▁discovered
▁os
hire
prod
▁likely
rid
shire
▁mainly
▁concert
bra
▁provin
▁elections
▁website
▁initial
ko
▁resist
▁intended
▁bishop
▁threat
▁tourn
oring
▁learn
▁...
▁creek
▁conduct
▁drive
▁sister
▁presented
ersey
▁wales
▁question
▁literature
▁polish
mond
ato
▁pick
va
ns
▁models
▁jes
▁attended
do
gal
je
aily
icient
▁operating
▁von
▁basis
▁ple
▁wars
▁represented
▁rare
water
agon
▁largely
▁volume
▁sport
which
▁stay
▁succeed
▁ring
▁sar
rovers
▁hundred
▁determin
▁plans
▁senior
▁helped
▁000.0
fort
▁responsible
▁inside
▁think
0.
abeth
▁categ
reng
▁johnson
▁tenn
▁symbol
▁ful
yer
worth
▁cars
respond
▁online
ounder
▁cub
wan
):
▁fit
▁sail
▁dial
▁hero
▁tracks
▁ram
▁cry
▁replace
now
▁quickly
book
istics
icted
▁graph
▁rain
▁direction
▁enter
iber
igr
▁tell
▁kenn
▁asked
▁trust
bed
▁girl
mad
▁poly
▁recently
▁hung
▁minutes
▁listed
ees
▁workers
▁wing
▁arms
▁actually
▁soldiers
▁scotland
▁ash
▁dar
▁headqu
rupt
▁towns
▁municipality
▁agreement
illa
▁neighbor
▁controvers
overty
▁adopted
sylvania
▁entertain
▁shar
▁raised
miss
bel
▁thous
▁extended
▁ability
illy
▁share
▁correspond
▁teacher
▁mis
▁intellig
kin
▁serve
under
▁wanted
▁issued
▁und
▁camer
▁poverty
▁officers
teen
▁implement
▁advent
▁brazil
▁brothers
▁municipal
▁told
▁repe
▁defin
aq
illed
▁removed
vement
▁wear
▁vari
▁islam
ault
enant
▁carolina
▁defense
▁apart
thur
ises
▁hab
mun
ws
nam
▁fast
▁organiz
▁concent
▁experiment
thing
▁divided
▁independence
▁rules
overs
▁equipment
▁treatment
▁id
▁jac
▁needed
▁potential
▁quarter
▁global
ji
adel
▁contact
cles
▁les
▁jr
▁albums
enger
▁extra
▁jean
▁jersey
▁immediately
'').
▁instrument
▁prec
akers
▁pennsylvania
ighter
▁quality
▁joint
▁boston
▁partn
▁rapid
▁streng
rical
▁simply
▁jackson
pass
▁medic
▁distinct
ias
▁alexander
▁regiment
▁chairman
stone
nic
set
▁tree
▁bern
nor
▁composed
▁ott
rect
▁adult
▁nuclear
arent
▁consists
fa
ening
▁analysis
wise
▁guest
▁cannot
▁capac
unt
iger
▁illust
▁spect
▁cav
attle
▁note
▁scholars
▁mit
▁albert
ng
▁rose
iro
ills
▁lett
▁wit
▁knowledge
▁budd
anda
▁sources
▁economy
▁versions
▁francisco
what
▁destroyed
▁vice
▁leaders
▁marsh
▁cooper
opher
▁probably
▁store
▁pul
▁rome
▁hispan
uan
▁columbia
tr
▁horse
▁ordered
▁continue
▁fell
ights
▁citizens
▁imperial
▁arrived
▁od
▁labour
olitan
onent
▁parents
▁ell
▁senate
▁assum
▁youth
asty
▁constructed
ivity
▁becomes
▁newspaper
▁opposition
▁arrest
▁sched
▁shop
▁residing
▁score
▁approach
▁plays
▁request
▁sha
▁leave
▁shortly
▁conservative
▁fifth
▁mathemat
▁applied
▁clin
▁serving
▁basket
▁parish
▁ax
▁collabor
▁overs
▁combined
▁mand
▁fish
fin
▁asia
ansas
▁academic
ety
▁cham
ancy
ulations
▁morn
iter
▁rand
▁exchange
▁protection
hl
▁steel
rane
▁prominent
onents
▁scen
▁officially
▁reflect
▁feel
▁measure
onto
▁basic
▁acquired
john
ching
rance
▁parties
▁figure
▁ocean
▁quant
▁eliz
▁powers
▁compared
▁bey
▁fox
▁rh
▁overall
▁featuring
▁resulting
▁contemporary
▁gh
▁favor
▁search
▁activity
▁mountains
▁pattern
▁aer
▁creation
gian
▁sev
greg
▁episodes
sl
mus
▁tele
▁inhab
▁settlement
▁scientific
▁traffic
▁charl
cel
▁covered
pet
▁£
▁golden
▁grant
force
▁shoot
zy
▁renamed
▁memory
▁contest
osh
burgh
▁table
▁critical
▁muslim
▁virt
omm
oul
▁selected
▁aim
▁interact
▁slow
pri
itled
▁affairs
▁page
▁perman
▁uns
▁#"
▁normal
usion
▁comedy
olved
▁scottish
▁kent
▁impact
acing
oration
▁opera
▁oxford
▁reduced
ci
▁estimated
▁mu
px
yr
life
.0/
▁lives
vin
bu
▁daily
▁defined
▁southe
▁price
▁champion
▁reference
▁treaty
ibly
▁script
▁climate
▁premier
reg
▁hotel
▁fix
▁distance
ione
▁jeff
▁sales
▁roll
lers
▁things
▁susp
▁garden
aka
▁disease
▁frequently
▁bol
▁minim
▁distribution
▁recover
ressed
▁infantry
▁swe
▁planned
▁damage
ati
▁letters
families
▁communities
▁relatively
▁metrop
▁split
▁contain
▁accepted
▁giving
▁initi
▁facilities
ón
▁condition
onic
▁bod
het
ski
▁moving
▁anne
▁convention
▁saying
▁leadership
▁serious
rain
▁sher
des
▁simple
▁mom
bec
▁bond
ador
any
mont
isters
▁cerem
▁versus
▁distingu
oman
▁victoria
▁borough
▁viet
▁claims
▁propos
▁ohio
oral
hr
▁agreed
▁comes
▁supreme
▁politics
▁allows
▁andrew
state
▁ga
▁charge
▁prin
▁presence
▁bed
aped
ockey
▁gram
hens
▁combat
izes
▁ontar
rison
▁opp
▁ontario
iy
ding
▁declared
real
▁efforts
▁etc
▁dur
lines
▁signal
▁brook
portun
▁ped
sex
aging
▁grew
▁aband
▁holy
▁trail
▁lew
▁mas
▁purs
▁suggested
▁sense
mat
▁elizabeth
▁fuel
▁animals
▁resulted
resh
▁attention
▁gained
▁hydro
▁solo
▁poland
▁kil
▁reject
▁retired
▁kong
▁confir
▁regions
▁thir
▁*"
gment
from
▁cells
▁fame
utenant
▁belong
▁hispanic
▁alt
▁opportun
▁pp
▁headquarters
▁reach
▁composer
era
▁vac
▁expans
works
iring
ogue
▁internet
jan
▁lady
▁scored
▁diam
▁norm
▁lot
▁attend
▁transform
▁rear
▁captured
cluding
▁classical
ocks
▁trains
▁examples
▁slight
▁advanced
▁occurred
▁surrounding
▁crime
▁athlet
▁managed
▁supply
vd
▁tournament
▁estate
▁greatest
ograp
▁content
claim
achus
▁las
▁fields
enge
▁philipp
▁cold
▁matt
▁basketball
ologist
omy
▁ry
aly
▁format
▁bott
▁talk
▁critics
▁morning
▁alternative
▁mort
▁palace
oted
▁heat
▁pak
▁occasion
etts
▁secondary
▁pier
tw
▁weight
▁mentioned
▁(0000–00
▁completely
▁suit
▁print
law
▁forward
▁freedom
▁hind
pat
▁hands
▁battal
▁dedicated
▁safety
writer
▁fighting
▁lear
▁chemical
▁encoura
▁atlantic
▁programming
▁vehicle
▁beyond
▁sund
▁allowing
onia
▁fiction
▁unique
▁conflict
▁tan
▁conducted
▁tay
oty
▁revealed
▁goals
▁methods
▁sexual
▁orth
ext
▁entertainment
▁eg
▁seasons
▁wilson
▁dynasty
forms
▁sle
▁capacity
▁iran
▁glass
▁religion
▁sciences
▁temperature
ented
▁defeat
▁purpose
rence
▁squadron
▁demonstr
amin
▁convers
▁toronto
▁canal
▁folk
▁unc
iced
▁cook
2).
▁background
ricket
▁subsequent
▁job
▁generation
zer
▁risk
▁seats
kh
▁baron
century
án
inois
,''
▁respectively
▁plants
▁resources
"),
vard
▁suppl
orter
▁positive
▁dim
▁attacks
▁expanded
▁northe
▁candidate
▁suffered
iot
tery
▁sin
▁marine
▁accompan
▁portion
▁chron
▁spr
ses
▁yellow
▁fully
inger
▁necessary
▁billion
icks
▁jazz
▁ford
▁technical
▁formation
▁capita
▁nas
▁kept
▁felt
▁latino
gor
▁speech
▁studied
0)
▁anton
ih
▁presidential
▁hills
▁twenty
▁bure
inity
ube
▁hyp
▁prote
▁dro
▁bron
▁contrast
adelph
sey
▁pope
▁powerful
atures
▁dor
▁notes
chen
▁berlin
▁bit
▁hat
▁recognized
▁materials
inson
▁joe
▁drama
▁centuries
mo
▁expected
▁motion
▁growing
fall
▁rise
iled
▁opposed
▁rein
▁functions
▁identified
▁stor
▁divers
▁kir
▁stephen
▁fal
▁philosophy
▁offers
▁agency
▁iraq
▁matter
▁apparent
achusetts
▁oldest
aming
▁projects
▁votes
▁hay
▁windows
▁compar
encies
▁want
▁paid
▁ts
▁moon
▁column
▁lieutenant
▁metropolitan
▁faith
ras
▁elementary
ounds
▁seem
phy
▁providing
▁00;
▁unlike
▁singles
▁georgia
▁orchestra
▁edge
▁fat
▁beaut
also
▁connected
▁doub
▁comic
▁crow
dney
ali
gi
▁effort
▁frame
▁vess
ima
kes
▁join
.0%)
▁usa
▁+
▁vent
estic
▁0:
adelphia
▁hong
▁marked
▁core
imb
▁advert
mes
▁internal
▁boys
▁aspect
▁resident
▁vehicles
▁theme
▁ign
ordin
▁refused
▁armed
▁granted
▁hockey
▁sab
▁weapons
▁alongside
▁michigan
▁founder
▁confeder
▁titles
▁reserv
▁acting
▁cricket
▁trial
").
▁firm
▁nap
▁oak
▁recomm
▁intelligence
ti
▁reserve
▁naz
▁piano
▁massachusetts
▁prep
joy
▁gives
▁illinois
▁something
▁purchased
▁younger
sup
▁arthur
▁enemy
▁sites
▁tried
▁jur
▁newly
▁vocal
▁jews
iques
▁environmental
▁mixed
▁feet
▁expansion
▁formerly
▁equal
▁architecture
▁cert
▁situation
engers
▁effective
▁ken
▁alliance
▁paint
▁adapt
▁coming
▁falls
eland
▁incorporated
ila
gra
▁publishing
▁exped
▁legend
▁jon
osis
kee
▁meant
▁max
▁facility
▁zone
▁daniel
ifying
▁fans
▁kings
▁cambridge
ographic
▁acts
▁dipl
▁eye
umber
▁herit
▁assistant
▁figures
▁philip
▁transferred
▁lt
▁judge
▁showed
▁astron
▁conqu
▁seek
▁lu
ounded
aya
inem
▁dang
ption
▁institution
▁tend
▁rug
▁says
▁organized
▁mm
▁sell
▁flat
hedral
▁extensive
▁serves
▁learning
ela
will
▁fly
▁principal
▁continues
▁snow
▁py
▁floor
▁nic
▁0000-00
▁survey
▁existing
',
rics
osen
▁spok
▁inspired
▁sud
▁subs
▁performing
place
ira
▁pilot
oh
cs
▁consequ
lar
▁owner
▁impl
▁strugg
▁derived
▁sons
▁rough
▁rural
▁nether
die
phas
▁ultim
▁choice
oln
▁application
▁santa
▁organizations
▁advant
▁solid
▁receive
▁freder
▁supporting
▁chamber
aling
▁rub
▁sche
▁sets
▁sky
ois
▁titled
iat
▁formal
▁classic
▁refers
▁rivers
▁weather
▁heritage
▁introduction
▁rid
▁myth
oir
▁kit
oti
▁priest
▁pakistan
▁animal
▁engineer
haps
▁unknown
▁(0000,
▁attempts
▁attempted
▁na
olis
▁shel
ception
pp
▁engines
▁planet
▁admir
di
▁liver
▁flood
▁han
▁equival
bell
▁else
▁decre
▁philadelphia
ava
▁restaur
▁racing
▁begins
▁mike
▁sweden
western
▁platform
▁ron
▁alph
zo
heim
▁dram
▁medicine
▁scul
▁attrib
▁influenced
▁advance
▁comics
igen
▁mole
▁0-0
▁americans
▁som
▁doll
▁gree
▁draw
▁ok
▁follows
ifically
!!
▁portray
ora
who
iday
▁flying
▁believe
▁exer
▁aid
▁reign
▁taylor
dis
rep
esc
▁ways
▁extrem
glas
▁ranked
▁standards
▁earned
▁swedish
▁scale
▁*0000:
▁strip
erse
▁representatives
▁avoid
▁exclus
▁reading
eman
▁failure
▁piece
wart
▁reports
inter
▁junior
▁positions
▁showing
after
lywood
▁defence
▁advoc
▁trav
eding
ads
▁winner
▁picture
hal
▁kid
aver
▁cris
▁cel
liest
▁creating
▁communist
▁steve
▁literary
cr
▁actions
▁pu
▁rab
▁girls
▁classes
▁horn
hum
▁roles
▁audience
▁northwest
▁alf
asy
▁ministry
dy
▁bes
▁davis
▁wheel
▁phase
▁entitled
ading
gro
▁sides
▁acid
oured
▁belief
▁theore
▁flu
▁00:00
▁succeeded
▁chur
▁invasion
gn
sky
▁settled
▁semi
ulate
▁ethnic
▁fant
ishes
▁spons
▁$00,000,
▁cos
▁worldwide
▁select
▁whit
▁historian
▁officials
itzer
▁electronic
▁applications
▁lewis
general
▁bac
▁resc
▁starring
▁prefer
▁chosen
▁shut
▁twice
▁storm
▁values
▁argent
▁0.00.
ographer
▁hart
▁lies
▁proceed
▁crim
ban
run
▁write
▁wed
order
ancing
▁deput
▁trees
incoln
)''
▁assigned
▁goes
▁poll
▁ideas
aine
▁emphas
▁toward
▁unable
omot
▁objects
▁turk
▁olympic
▁bands
▁clar
▁hosted
world
long
▁achieved
rec
▁kel
▁fine
▁interior
▁ultimately
▁ward
▁gran
▁parall
▁cant
▁korea
▁ros
'';
aret
▁cancer
▁designated
▁netherlands
▁*00
mic
▁writers
▁dropped
▁dry
▁fear
▁sculpt
▁abd
rome
▁launch
vo
▁stev
▁connection
this
bal
bourne
▁narrow
▁occupied
▁containing
▁promoted
▁wave
▁device
▁gate
/0
▁gri
▁lands
▁administrative
pton
▁mig
uled
▁sed
▁existence
▁pros
night
omer
▁shared
▁sty
▁downtown
cluded
▁behavior
▁hour
▁000–000
▁chris
oren
▁limit
top
▁permanent
onym
▁theater
▁resistance
▁setting
▁cow
stream
▁#00
▁wealth
▁actual
urer
▁spot
itors
▁agent
▁maximum
▁demand
▁prepar
▁slightly
▁roads
roll
▁publication
▁guns
come
ru
▁cool
amm
ims
▁corner
▁plot
▁churches
unk
▁bush
▁ll
▁planning
▁properties
▁pair
▁synd
▁identity
ricts
▁ru
▁nominated
▁bag
▁accident
▁leaves
▁pione
iny
▁dub
▁strateg
▁vic
▁cycl
▁strength
▁ray
▁ka
▁doct
▁tank
▁proved
▁bann
iments
eries
▁regarded
astern
▁factory
▁carry
▁tall
uts
isms
▁gil
track
▁waters
athan
▁perhaps
▁enjoy
ami
▁battalion
▁0000–00,
▁typical
▁programme
▁copies
uese
'':
ieval
ropical
uther
▁poetry
▁drums
ruct
▁negoti
▁visited
▁ages
▁ak
▁exact
▁earliest
mine
▁communications
cal
▁respond
▁ancest
ternal
▁causes
▁institutions
▁driver
otic
▁heavily
▁satell
rif
▁merch
▁passenger
▁transportation
▁gain
▁christmas
▁lind
▁cathedral
▁authorities
▁argued
▁cem
▁eag
▁performances
ouri
odox
▁lyn
▁domestic
pson
rine
▁guide
ée
▁couple
▁neighborhood
amic
▁plate
aud
lav
count
▁ny
prise
▁inhabit
▁buried
ipe
een
▁rif
uls
hann
▁shape
▁straight
ucky
▁structures
ogen
organ
weight
▁marg
▁quite
▁decades
▁expos
▁detect
▁multi
▁brain
room
▁carbon
tim
▁birds
▁mist
▁specifically
power
rising
▁#0
▁broke
▁touch
▁harry
▁wrestling
▁constitu
entially
▁leon
▁user
▁lincoln
▁ross
▁occurs
▁ari
zech
▁reasons
▁pieces
▁row
▁sydney
▁bang
▁correct
former
▁clubs
agan
▁convent
din
▁douglas
▁worth
aki
rum
south
▁vel
▁boat
▁retire
▁wr
▁attacked
▁buff
uv
ashion
▁returning
▁fought
▁orders
▁determined
▁colonial
▁negative
▁copy
chers
wick
ho
alty
▁senator
▁synthe
▁merc
▁tag
▁intel
▁tai
▁chain
▁steam
▁converted
▁sax
▁insur
▁ot
▁marc
including
▁notably
▁tony
▁diplom
▁opin
▁jesus
enna
▁begin
▁medieval
equ
ni
▁representative
▁)
▁descript
icit
▁bear
▁holds
▁interpret
ju
▁0%
ucing
▁studios
▁bot
▁matches
▁ones
▁locomot
▁controlled
sis
▁translation
urt
▁barb
▁possess
▁easily
rim
▁bull
▁teaching
omen
▁howard
▁gang
▁facult
▁entirely
adow
▁ore
▁publisher
▁techniques
▁brigade
▁hair
unte
▁onto
zen
▁sought
▁districts
▁tail
▁dvd
▁fict
▁rival
▁ton
▁orient
▁visual
▁fan
point
▁phen
▁obtained
▁maria
▁universe
▁gord
uing
pol
▁aqu
▁evolution
iversary
▁southeast
▁holding
▁championships
▁universities
▁needs
umin
▁affili
▁auth
'.
▁circuit
▁heard
▁:*
▁sixth
nesota
hu
▁lov
but
▁reduce
▁0''
umes
▁fro
ighth
▁ending
▁opposite
▁bought
▁az
▁killing
may
east
▁portuguese
▁contained
angel
burn
gency
▁strike
▁agricultural
▁situated
▁bapt
▁archae
▁appearances
▁expedition
▁arc
▁vary
eed
iar
▁depend
▁sequence
▁recon
▁employed
▁bou
▁height
aska
mel
▁nothing
▁mast
anes
▁combination
vis
▁painting
▁bureau
▁ow
▁calcul
▁developing
elve
▁miller
▁lect
aga
orders
▁pear
▁hav
▁abandoned
▁documentary
▁communication
▁unif
igation
▁improved
▁incident
▁mah
ić
sel
gas
▁sie
▁stores
▁universal
▁causing
▁reaction
▁regarding
▁advis
▁audio
▁kr
una
▁anniversary
▁hits
▁catal
▁importance
▁humans
▁budget
▁grade
inder
▁deploy
▁banks
uting
fully
▁ends
▁approved
▁substant
▁rugby
pool
▁tu
▁hu
▁neut
orph
▁expressed
▁brad
box
▁maintained
▁pup
apore
▁fab
rock
▁penins
▁accur
▁merged
non
▁cycle
▁losing
grad
dale
▁sust
▁cable
▁possibly
she
grees
▁sr
▁volunte
▁calls
▁0)
clos
▁hug
▁minnesota
▁closely
iling
▁withdra
▁formula
▁criminal
▁crisis
▁shall
▁cabinet
▁rober
▁landing
isf
trans
▁circle
▁consec
amilton
▁broadcasting
▁veter
▁bottom
▁czech
▁analy
gement
▁cinem
ilation
▁cad
▁hope
▁escape
bill
▁moment
▁maintain
poses
▁ker
▁equivalent
▁degrees
▁terminal
oster
▁factor
▁vietnam
▁images
▁patri
illery
▁shore
bey
▁proced
▁observed
▁fresh
▁routes
anth
ori
▁mexican
▁speak
appe
hard
▁salt
▁why
▁dream
▁affect
▁korean
▁streets
▁gib
etery
▁extension
▁mobile
acent
▁walter
▁instance
▁courts
▁ruled
ensions
▁alleged
▁manchester
▁chapter
▁offices
▁doing
▁educational
iful
▁simon
▁homes
▁elimin
▁advantage
▁journalist
▁hors
▁disney
▁provincial
▁contributed
▁aired
lyn
▁task
▁eyes
ogy
▁standing
▁repeated
▁difference
▁rhy
▁try
▁views
▁fixed
▁cemetery
▁allen
pres
cow
▁twelve
▁establishment
▁missouri
▁occas
▁"''
▁cdp
▁lane
▁orange
▁nich
▁austria
net
▁liqu
▁fighter
▁mi
▁fashion
zz
olished
father
▁orthodox
▁operate
▁producing
▁confirmed
▁knight
▁monarch
▁pron
▁successfully
fir
▁é
▁inhabitants
such
▁gallery
▁terror
▁hollywood
▁locations
▁::
▁clark
▁partner
rix
▁gene
▁musician
ben
▁popularity
racy
▁parallel
ova
▁northeast
▁cape
▁mol
▁kl
esh
▁output
eller
eration
▁depending
▁frederick
▁entry
▁bos
▁dc
▁sale
▁inters
▁describes
▁bright
▁relative
black
▁devices
▁plane
pre
▁submar
▁none
▁princess
▁raf
▁laid
▁users
▁treas
▁defend
▁lam
yard
usal
issance
rons
▁bowl
uses
▁colony
▁definition
▁statement
▁articles
▁partnership
▁experien
▁ment
▁goods
▁obl
osa
▁extremely
▁brian
▁walls
▁bodies
aria
▁persons
▁briefly
ito
▁(0)
iary
▁taught
▁cryst
▁portra
▁lyrics
erts
ager
▁caval
▁pav
▁voted
▁revol
▁passing
▁circum
▁founding
cious
oto
▁install
▁resear
▁airlines
▁door
▁gay
▁factors
▁thousands
▁string
▁dialect
▁adap
▁cha
▁quebec
iscons
▁translated
▁consisting
▁grey
▁category
▁bh
▁instruments
▁differences
▁scenes
▁magic
▁federation
▁soul
utation
edia
▁entrance
▁hamilton
low
cop
▁singapore
rate
▁tas
▁reviews
▁dies
antic
▁franch
▁hou
pir
▁agriculture
▁fictional
▁plus
ef
isconsin
olas
▁recognition
▁southwest
▁otherwise
▁allied
▁counties
▁pictures
▁kansas
▁reality
▁ul
▁vert
▁charter
▁underground
▁designs
▁looking
pop
▁shell
iner
▁sunday
▁uncle
▁alco
▁khan
lets
▁rod
fran
icial
▁atm
▁laure
▁clean
▁loy
present
▁solution
ieties
iac
▁items
while
▁villages
▁commissioned
▁deputy
aug
▁swim
▁thor
▁jam
▁greg
▁costs
▁musicians
▁00-00
▁broken
▁wolf
▁dat
▁appoint
▁peninsula
▁ali
ceived
▁witness
ão
▁adam
going
▁faculty
▁recre
▁greece
rele
▁passengers
▁consisted
▁jacob
▁appropri
vant
wal
wealth
▁ko
othes
▁trip
icate
▁receiving
▁(0000-0000)
fr
▁brid
▁challenge
▁norway
anna
▁requires
▁fred
ender
wall
▁candidates
eld
inth
▁cass
▁draft
naissance
▁technique
agu
▁colorado
▁trying
▁grounds
▁cards
▁mode
▁blues
▁attor
▁sid
▁context
▁habit
▁significantly
mill
elect
▁consult
▁violence
eria
mers
▁operates
▁medium
▁frequency
▁artillery
tor
▁patrol
▁participated
▁anderson
▁physics
icts
▁kim
▁pray
dp
▁purposes
▁drink
vent
▁bart
rat
▁credit
▁queens
cat
▁alan
▁tact
▁innov
▁decade
▁legislative
iang
▁discovery
▁chapel
▁skin
isa
▁000-000
mi
▁resemb
▁seems
▁nickn
▁graduate
iants
alo
▁serb
you
▁ther
▁patients
rell
▁brun
▁mp
▁unus
▁improve
▁jos
▁manufacturing
▁favour
▁rig
▁arrested
▁affected
▁il
oud
▁moore
▁novels
▁severe
▁adjacent
▁ceremony
▁samuel
▁ille
▁covers
▁monument
▁dates
▁territories
▁purchase
ologies
▁funds
▁weekly
▁fu
▁benef
erto
lock
gate
▁genus
ares
stit
▁construct
▁sector
ocol
▁nam
▁junction
best
▁pir
apse
▁recip
mid
▁subsid
▁installed
ür
00,
▁gordon
▁personnel
▁scholar
▁mississ
▁vision
▁investigation
tz
oking
▁mans
▁tren
ippi
▁sections
▁inner
▁rejected
▁fried
▁gender
etime
lie
▁rud
▁registered
pal
▁increasingly
▁explos
agen
▁asc
▁satellite
▁vs
▁occasionally
▁fisher
▁lun
▁aviation
▁wisconsin
▁fo
▁hans
div
phone
▁passes
▁hell
borough
▁vii
▁upd
master
▁golf
icide
▁(000.0/
▁myst
rete
▁hang
▁bath
how
ivals
▁hawai
▁transition
ache
▁gulf
▁documents
▁tells
chang
▁imag
▁really
▁parliamentary
▁components
▁symph
ords
▁rates
▁authors
aza
▁rebu
range
idden
▁colonel
▁mine
level
▁assass
▁ah
▁pure
▁transit
orge
▁whereas
▁atmosp
aph
ushed
▁residence
▁commonwealth
urday
inner
▁mouth
▁phr
vol
▁flo
▁attached
▁check
▁wins
▁isol
commun
▁battles
▁islamic
aints
▁injury
eley
cho
▁apple
▁distinguished
hold
ilit
outs
owned
▁painter
▁recordings
▁param
▁kennedy
▁weak
▁perfect
related
high
▁depos
▁absor
▁truth
▁understanding
▁employees
▁emot
bat
aust
▁gab
▁somewhat
▁mathematics
bus
vest
▁ern
▁starred
▁modified
▁debate
▁dick
▁lawrence
akh
▁funding
▁normally
▁abc
ghan
▁leads
fire
uits
pective
▁tick
roit
ocracy
▁composition
▁graduated
▁kal
jun
▁patrick
▁duty
enses
▁roger
▁tennes
▁poem
▁thing
▁rum
▁surg
▁selection
las
ategy
▁manner
north
▁export
▁focused
soft
owa
friend
▁wy
▁juris
▁nest
▁policies
▁cot
▁save
▁stret
▁superv
hou
▁capture
▁lakes
▁grass
▁pin
ika
called
▁delay
action
▁landsc
▁mall
▁message
▁stands
▁interests
poss
▁jane
▁drawn
▁buck
sal
▁commem
▁scheduled
▁boundary
▁watch
pes
▁tennessee
▁wire
▁winds
apes
▁opportunity
▁emergency
iva
▁parks
▁spiritual
▁superior
▁metro
▁tests
phe
▁lith
▁weapon
▁refuge
▁veget
▁lanc
▁ltd
▁ale
▁assess
▁testing
▁maryland
▁olympics
▁dol
▁distributed
▁industries
▁driving
press
▁exception
▁reaching
ublin
▁indiana
▁capable
▁scheme
▁solar
rator
▁amend
▁rol
▁coalition
▁hunting
dam
▁photograph
cor
▁guitarist
▁revolutionary
▁expand
▁retail
body
▁deleg
atically
▁strategy
▁!!
▁evening
▁additionally
▁finish
rose
mouth
▁criticism
▁dal
▁eat
▁tropical
▁herself
▁coastal
elle
▁separated
ré
ocated
▁coordin
▁details
▁calling
wegian
▁pool
▁diet
▁resigned
▁investment
▁suggests
▁descend
clusion
▁chance
wich
▁philippines
that
▁assault
▁considerable
pie
▁clay
oven
▁skills
▁mes
▁feed
▁singing
hand
▁carrier
▁bronze
know
song
cur
oyd
▁socialist
▁representing
▁preced
bishop
▁wine
▁harris
▁traditionally
▁delivered
▁prohib
rant
▁00000
▁aware
▁nfl
inction
▁markets
cons
▁bib
▁bruce
▁immigr
▁divisions
uous
▁promote
▁lang
icien
▁fishing
▁kat
▁ark
ordan
!''
▁expression
▁crossing
▁fill
enh
▁anch
eton
▁arena
▁elder
▁tow
▁successor
▁buy
▁external
▁pig
▁000-
united
▁invent
▁influential
▁processes
▁transmission
▁retained
▁selling
▁zero
gue
hus
ographical
▁sleep
▁spoken
▁scar
▁ip
▁ottoman
▁franklin
▁anthony
▁drew
▁simpl
▁assumed
▁cloth
▁involving
ifications
icians
▁describe
▁visitors
▁roberts
▁useful
▁lob
claimed
▁seventh
fare
inian
amental
▁pages
national
▁hyper
▁teen
uster
▁lad
▁gear
▁aspects
▁cm
▁determine
▁desert
▁survived
▁decor
▁moscow
▁roughly
▁reputation
▁visible
▁proport
▁retirement
▁00)
▁safe
▁mining
▁restored
▁businesses
▁membership
▁faced
▁attorney
▁warri
eless
▁credited
lah
oles
▁cul
▁concluded
▁palest
term
antly
▁util
▁chose
▁melbourne
aked
▁pric
aux
▁sufficient
first
▁legislation
▁tunnel
="
▁pip
▁wol
▁canc
▁rit
▁soil
▁bom
▁manus
▁switch
▁diamond
▁ridge
▁harm
▁storage
▁decline
▁edited
▁actors
▁yards
▁accused
render
▁carrying
▁mississippi
▁nel
▁cbs
oen
▁gardens
white
▁juan
▁russell
▁adams
▁gi
iders
▁experienced
''-
two
▁sugar
▁indones
▁learned
▁networks
▁collected
▁johann
istol
▁lev
▁colour
▁instruct
▁greatly
▁responsibility
▁accounts
cha
▁cod
raine
gun
▁rhyth
▁hurric
▁electrical
▁poems
▁tribes
▁si
▁charges
▁diego
▁publications
▁upgr
▁engaged
▁controversy
▁principle
▁damaged
▁charged
uccess
▁wides
istical
▁cavalry
▁inher
onian
▁eric
▁session
▁wick
uma
▁stating
▁fm
asts
hammad
origin
▁option
▁exhibition
eline
▁measures
▁excell
▁ere
▁coc
tes
▁norman
▁regularly
▁$000,000
▁throne
▁rebell
▁dod
▁journey
▁progressive
▁conservation
super
▁accompanied
▁denmark
▁guy
rapy
▁scand
itzerland
▁rice
▁arrival
▁supposed
▁questions
▁pel
▁bible
▁accommod
alf
ovak
omic
▁index
▁matthe
endar
.0000
▁dismiss
▁restrict
vements
▁opinion
▁‘
▁hud
▁divor
▁''(
▁appeal
▁puerto
▁harbor
▁subjects
itt
▁intellect
▁broadway
▁bid
▁adapted
pur
▁om
▁dave
iley
▁sad
▁monaster
resents
▁provinces
▁alfred
cular
▁hired
▁prepared
▁animated
▁resolution
▁aged
amps
▁encoun
▁controversial
▁neither
▁productions
▁replacement
lan
ista
nov
▁massive
▁movements
▁bah
▁effectively
▁requirements
▁detroit
▁promotion
▁bun
▁papers
▁fired
inations
▁belg
▁similarly
gorith
▁alexand
▁hub
▁outstanding
▁extreme
▁strongly
▁ric
chi
▁ss
▁economics
▁norwegian
▁easy
▁heads
▁reconstr
ante
▁sult
▁practices
▁biggest
▁wet
▁roof
▁turkish
▁backing
▁represents
lem
▁constitutional
▁camera
▁historically
▁nbc
▁lock
▁duties
▁surf
▁organisation
▁diagn
uration
▁pc
ounced
door
▁ku
▁exists
▁uss
ardo
▁houston
▁thick
▁salv
▁depression
▁admiral
▁portugal
▁rapidly
▁phill
▁sig
rage
▁ahead
izon
▁manuscript
▁statue
▁springs
▁algorith
▁benefit
▁resign
▁fantasy
pers
▁stewart
iga
▁manif
▁mounted
▁sort
nie
▁sor
ruction
▁soccer
▁tang
▁principles
▁ratio
▁aw
▁assistance
▁franchise
▁haz
▁osc
▁radical
▁linked
ucks
▁finds
▁hence
▁gent
▁evil
▁baby
▁laboratory
▁declined
▁afghan
sim
ikh
▁wings
▁achieve
oes
▁continental
▁turkey
▁abb
ctic
free
▁committed
▁lingu
▁margin
▁dean
▁dna
▁louisiana
▁logo
▁bry
▁switzerland
▁grav
▁ago
▁lod
▁scoring
bound
▁(0000–00)
foot
▁lux
▁fruit
▁shield
▁welsh
boards
▁playoff
▁relief
▁colleges
icut
▁jet
▁passage
raction
▁thousand
▁mental
▁neighbour
▁plain
▁dj
▁getting
gments
▁stanley
essions
ello
▁interv
▁cous
▁trading
▁classification
fast
▁croat
▁commemor
▁lap
cted
▁consecutive
▁exerc
▁adding
▁settlers
ders
otype
▁owners
bb
unc
▁wright
▁montreal
igenous
▁swiss
▁mack
▁criticized
▁representation
▁stages
▁soldier
▁(0,000
▁oregon
▁dublin
▁eval
▁bour
ture
▁remember
▁celebrated
▁mechanical
▁''"
▁movies
▁ans
lad
break
bird
idae
▁stro
▁ambass
oked
▁huge
▁pad
rations
▁dress
▁lion
▁nazi
boy
▁arn
▁jurisd
▁ele
/0000
▁biography
▁ion
▁destruction
▁processing
▁ay
sur
▁domain
pread
▁courses
cription
▁finance
coming
▁changing
eing
▁renew
sea
▁benn
▁didn
ui
itable
▁lawyer
tenance
▁alcohol
▁legislature
▁electoral
▁auton
spec
imens
▁surrender
▁expect
▁formally
▁christopher
▁philosopher
▁twin
▁campbell
rises
▁soph
▁kentucky
▁kev
▁residential
eign
▁stopped
kyo
▁missile
▁ensure
▁margaret
▁rib
hop
▁concerns
issue
▁tennis
erate
▁curt
▁seconds
▁stream
▁rout
▁coff
nas
oust
iciency
▁gray
▁continuing
▁donald
dd
▁outer
▁vast
▁austrian
▁curren
▁widespread
abama
▁finn
▁mars
▁invited
dem
▁governments
ateur
▁crash
▁input
leg
▁anything
";
isted
▁protected
▁tab
▁gather
▁longest
▁harvard
▁jordan
four
pm
eenth
brew
▁liquid
lahoma
▁forming
ranean
thro
▁tools
▁machines
▁extent
▁adaptation
▁gradually
sub
▁supporters
iami
▁nik
veland
▁disappe
brit
▁ownership
▁jay
san
▁maintenance
▁roots
▁honorary
▁printed
▁filled
▁malays
▁occupation
▁beautiful
christ
▁taiwan
▁clim
agues
▁chanc
▁minimum
▁headed
▁vect
▁protein
▁thin
▁guid
▁clock
▁portrayed
▁accompl
olds
▁mong
▁unsuccess
▁dual
▁danish
atherine
▁existed
▁random
▁apparently
▁component
just
▁tribe
▁contributions
▁hear
▁mail
usalem
▁indigenous
▁experimental
dan
▁giant
▁pic
▁insurance
zona
du
▁morris
▁uniform
▁honour
▁00:
▁explained
kshire
▁persian
▁drag
▁morgan
ologists
▁rescue
▁stood
▁walker
city
▁hip
▁incom
▁sang
▁dating
▁wes
▁alleg
▁strategic
▁israeli
▁offering
▁afterwards
▁allies
.”
ded
▁painted
▁caught
▁hosts
▁(00.0%)
later
▁sultan
allas
▁speaking
▁depth
▁prisoners
▁optim
▁excess
▁peop
theless
▁abbey
▁integrated
▁armen
▁populations
▁returns
▁hundreds
▁styles
▁prompt
▁mills
▁strict
ailed
▁remark
▁cash
ashed
▁inaug
▁tokyo
▁viewed
▁scientists
▁carter
hill
▁sover
▁cher
▁texts
▁window
ía
seud
season
▁stress
intend
ensed
▁indicate
▁coat
irt
▁nevertheless
▁calendar
▁profession
▁sovereign
contin
▁lem
icop
apers
obi
▁pruss
▁wrong
▁vow
py
aware
▁ideal
▁surviving
mm
▁grown
▁periods
▁hamp
load
▁thirty
.000
▁arist
orus
▁adopt
org
grand
olid
oct
▁rising
▁centers
▁trained
oslav
var
▁orig
▁limits
▁pas
▁peoples
▁secure
▁flights
died
antine
haw
▁nelson
▁warm
using
ez
phil
chel
▁comed
▁arizona
▁statistical
▁drawing
▁footballer
▁airline
▁delta
hered
▁finding
▁understand
ules
▁wounded
donald
?"
▁germans
green
▁vul
▁preserv
▁root
udes
▁satisf
▁cov
▁soundtrack
▁nit
▁marshall
rus
▁mini
oli
▁vessels
▁connecticut
▁description
▁shif
attan
▁teach
▁eu
▁hungary
▁signs
▁trig
▁linear
▁prix
▁classified
▁gam
chell
publ
▁spin
iah
▁basin
▁personality
▁links
▁karl
▁alabama
▁prosec
▁pleas
▁offensive
▁athletic
▁yan
▁noble
▁drugs
▁frequent
(''
▁temporary
▁ride
▁rick
▁filmed
▁hem
▁struck
!"
there
mingham
▁appearing
▁sweet
▁volcan
▁nut
▁thompson
▁volumes
inburgh
▁admitted
zi
▁maur
mr
▁temperatures
▁toy
▁indeed
▁kick
cycl
▁indians
apolis
▁turns
▁yield
his
▁saturday
▁capit
oria
▁mrs
disc
▁ky
▁agents
▁corporate
▁tam
▁billy
▁meanwhile
▁dre
lic
rac
▁treated
▁paintings
▁oxy
▁dy
▁covering
▁license
vious
▁coverage
riers
▁substit
▁interstate
def
▁fern
▁channels
▁antonio
▁charts
nell
▁hindu
bow
ser
dest
▁unusual
▁robinson
▁vinc
eur
▁tong
▁equipped
▁arranged
▁geomet
▁discip
▁finland
▁valid
tical
▁speaker
ellor
▁restoration
▁shopping
▁belgium
▁serial
▁directors
és
obile
▁everything
otte
▁yor
▁render
away
▁por
▁genre
▁worship
van
▁oklahoma
▁shock
▁increases
▁teachers
▁submarine
▁essential
▁moves
far
abled
▁pitch
▁practical
▁missions
urg
timore
▁**''
▁cler
▁jerusalem
▁tot
▁stim
▁parad
eas
iterranean
▁bic
▁voters
▁displ
▁interested
▁murray
▁bind
▁warner
▁segment
▁kelly
▁concerned
folk
path
▁symphony
esis
jamin
▁gone
▁hunter
▁sympt
fish
style
▁liverpool
▁starts
▁kevin
▁calc
▁gill
▁impris
▁turb
▁knew
▁vit
▁partly
apping
▁circumst
▁riding
▁acknow
▁historians
cd
william
▁cited
▁wooden
▁vienna
iop
▁engineers
▁ni
▁baker
▁fib
▁luther
▁(0000-0000),
▁executed
▁liv
gie
▁0000–0000,
▁neck
ultane
▁hunt
▁lasted
▁attributed
▁continuous
ét
▁operational
▁config
▁cleveland
▁branches
▁chile
▁instrumental
▁rooms
▁raise
▁amateur
▁tip
▁orbit
utor
abet
▁traditions
▁sight
big
▁flash
▁hob
▁panel
rog
▁gon
▁barry
▁jobs
▁wonder
▁proposal
▁surrounded
ader
tering
▁borders
fil
person
▁pull
▁origins
▁detailed
▁enforce
▁triang
▁furn
uda
▁send
ilst
▁genetic
▁begun
bean
▁restaurant
▁ms
▁perc
▁characteristics
▁completion
▁bernard
▁knock
▁participate
▁entering
▁seattle
▁triple
ingly
pin
▁victims
▁ye
ridge
▁siege
▁moral
▁prede
igration
rehens
▁hurricane
▁minority
oa
▁dioc
brid
▁goth
▁ing
▁defensive
▁lud
▁designer
iti
▁helicop
▁childhood
▁renov
▁layer
▁mediterranean
▁tourism
anny
▁manh
umed
ners
▁carib
adesh
▁amongst
▁archbishop
▁simultane
asa
▁lan
▁flows
▁concentration
▁horses
▁colors
▁nob
▁spaces
▁losses
si
▁congreg
rastruct
▁bringing
▁pant
oz
▁pitts
▁nag
▁atlanta
▁dragon
erted
▁gross
▁tool
▁missing
▁matters
urally
▁reprod
▁revival
▁miami
▁rating
▁employment
▁injured
▁suicide
▁edinburgh
▁absol
▁emerged
▁warren
▁peters
▁substantial
▁tub
▁marketing
▁operator
ishment
▁behavi
▁denn
▁graham
▁din
▁datab
▁advertising
emen
▁shooting
▁usage
▁replacing
rip
▁rus
▁whilst
▁crus
govern
▁experiences
ando
▁hitler
▁educated
kar
▁rarely
ribed
atus
▁diction
▁mond
▁jenn
▁marks
▁electro
▁johnny
▁wearing
▁maps
▁provision
▁monitor
▁fundamental
yon
▁dak
▁quad
▁phrase
▁jimmy
mund
▁cartoon
▁birmingham
▁radar
▁ian
▁ninet
german
osph
▁$0,000
▁infrastruct
sil
cap
▁shares
▁annually
▁rebellion
▁resort
▁angle
▁repr
▁forb
▁recommended
▁attracted
▁sudden
▁serge
▁commerce
▁files
abilities
▁indicated
▁involves
▁relation
▁napole
iest
▁hungarian
▁immediate
▁ghost
rh
▁expensive
when
▁premi
aire
ivan
▁newspapers
▁kra
▁000)
graduate
▁tempor
▁alge
pent
▁magnetic
▁radiation
▁appropriate
uces
▁creative
uations
▁bact
▁encouraged
borne
▁obtain
▁photo
▁desire
▁cultiv
▁dangerous
aj
▁argentina
▁casual
▁orb
uble
▁ambassador
ambig
su
andy
▁interpretation
ricted
▁kam
del
fre
▁mechanism
▁nash
iqu
▁egyptian
fc
released
▁rocket
oba
▁turning
▁iowa
iden
▁sounds
▁rever
▁civilian
iki
odore
▁predecess
▁transmit
▁tanks
▁adjust
▁voting
▁joining
▁ft
▁loop
▁theories
▁conventional
dav
▁commons
great
▁regime
▁partially
▁surgery
bet
▁opponent
▁benefits
▁writings
▁undert
▁deck
▁preserved
▁relationships
▁baltimore
▁:''
▁ferry
iser
good
iller
speed
▁fled
▁deaths
▁wag
▁°
▁diff
oker
▁joy
▁dominant
▁byz
alph
hour
▁dominated
▁tribute
▁collaboration
▁anglo
▁rifle
▁happened
▁collapse
▁compete
▁commissioner
▁meat
▁corrupt
bach
▁accel
usa
▁belt
▁canon
▁explor
cro
▁variant
▁balance
▁interpre
▁voy
▁choose
▁annex
▁generated
▁pod
atin
velt
gow
▁clearly
▁confederate
▁stable
▁harbour
station
▁clinton
phal
▁harrison
helor
▁kilomet
▁highlight
▁revenue
cules
▁gy
▁lists
▁merchant
▁diver
▁predomin
▁sessions
▁reduction
iph
rolled
▁portrait
ussion
whe
itarian
▁benjamin
▁slave
▁oxygen
▁patent
▁computers
gent
▁kon
▁drummer
▁eug
▁farmers
ige
▁chemistry
▁error
▁microsoft
▁brazilian
lington
▁democracy
▁boats
possible
▁struggle
▁produces
▁percentage
▁gor
▁pierre
▁intention
second
▁ibn
▁cruis
▁landscape
▁guar
fs
▁illegal
▁compilation
▁sharp
▁mathematical
▁absence
▁tort
▁apply
▁intent
lete
bul
▁themes
.'
elli
▁supplies
▁nba
dire
▁eagle
dist
▁possibility
▁ready
ifies
▁recept
▁romantic
▁patron
▁vessel
▁horizon
▁cole
▁driven
▁christianity
appro
▁cock
▁gary
▁exceed
▁marie
▁nomination
▁gets
▁amendment
▁copper
▁releases
tha
▁variable
▁len
▁flav
▁praised
▁foss
▁esp
ictions
sing
univers
▁cyl
ooth
ouver
▁declar
▁producers
oga
▁researchers
wright
ör
▁josé
▁blind
▁false
▁polar
▁apost
▁(0000–
hall
cour
▁sisters
lik
▁austin
▁infrastructure
▁protestant
uki
▁steps
mart
▁wayne
acre
▁constituency
orship
▁departure
▁stayed
▁shah
▁patient
▁virtual
▁involvement
▁angl
▁dogs
▁cargo
▁blocks
▁collections
▁beng
mate
▁arabic
berry
▁ww
▁pent
▁aggress
mount
▁kaz
▁harmon
▁trap
uri
anian
▁femin
▁kin
▁gosp
▁grace
formerly
▁characterized
yan
▁*0
▁denied
▁explo
type
opes
▁exposure
▁holiday
▁arrangement
▁comprehens
▁earn
▁publicly
▁bog
udi
front
olia
▁hull
president
▁depicted
▁cotton
igo
▁cave
▁neutral
▁ted
xic
▁adventures
acle
▁gradu
▁telephone
sect
three
▁boundaries
▁dock
abil
▁eighth
▁heir
▁shift
post
▁prices
iveness
rin
▁remove
▁nan
▁distinction
ulating
▁artific
scale
game
atch
▁cinema
▁inqu
▁elsewhere
blue
▁blo
tel
▁threatened
▁editions
▁adventure
ingham
▁truck
▁evolved
▁ministers
itis
▁nurs
▁dallas
▁signals
▁bin
▁argument
▁closer
adi
▁tib
▁patterns
▁nom
▁quart
ignment
▁meets
▁customers
ml
hell
▁eleven
oly
▁raj
▁remainder
▁mck
▁ble
▁liberty
▁essentially
▁hut
castle
▁propag
osevelt
▁bald
▁prefect
▁graphics
idency
market
▁pink
▁exercise
final
▁identical
dou
▁pregn
▁loan
▁monastery
▁pine
▁matthew
▁concerts
then
rors
▁raw
▁spoke
lay
▁parker
▁dated
▁alpha
▁saints
▁technologies
otes
mag
▁phoen
▁ceremon
▁masters
▁(0000–0000).
mc
▁flower
▁hardware
billboard
▁yug
▁crowd
▁occasions
aste
▁matrix
▁summit
▁pseud
isition
ais
▁waste
▁daughters
▁tape
▁weekend
▁leaf
▁ri
▁animation
▁corresponding
▁pharm
▁slaves
race
ersed
olo
▁shadow
▁catch
▁biological
▁bears
▁ryan
▁anyone
▁heaven
▁meetings
only
▁jum
child
▁sword
▁analog
▁associate
▁tube
▁debt
▁demon
▁griff
▁isa
▁enjoyed
▁zh
▁claiming
▁circumstances
othy
▁cousin
▁worn
▁vik
▁experiments
▁challeng
▁hebrew
▁supports
▁manhattan
▁identify
leans
▁touring
▁psychology
ashi
▁yard
▁efficient
sv
▁logic
▁richmond
▁(),
▁finishing
▁parent
▁sample
▁variation
▁hudson
▁bachelor
orous
▁consumer
▁persu
▁originated
▁(0.0
▁fitz
strong
hetic
▁andre
euro
rot
▁fitted
▁nobel
▁reli
▁prest
▁ruling
▁statistics
▁jar
ifer
▁guer
▁sket
▁phone
▁thereafter
sters
▁warfare
▁connecting
▁wool
inch
▁tourist
▁approval
via
izer
love
▁revised
▁proof
▁ranks
gold
▁mainstream
live
▁displayed
▁tob
▁cru
▁collins
iration
▁symptoms
wind
▁lac
▁fert
▁ced
ancouver
▁stu
▁references
ín
▁anat
▁pole
▁mines
▁roosevelt
ère
▁concrete
▁cp
▁dum
▁trophy
▁suffering
▁tone
▁descent
▁anna
▁libr
▁swit
▁cord
▁forests
▁immigrants
▁(,
▁muhammad
▁sole
▁hearing
▁compens
rett
▁flowers
▁hypothes
▁expert
▁impossible
▁gates
▁nicholas
▁****
urers
▁afghanistan
▁jefferson
▁discussion
▁manufactured
▁eggs
▁hole
▁preferred
▁locally
amics
▁suitable
▁charity
xual
nn
▁mitchell
▁hend
▁seed
▁chess
onymous
▁michel
▁theorem
▁decisions
▁sri
▁seeking
▁automatic
▁'00
aro
▁sod
▁berk
▁speakers
redited
ambiguation
▁islander
▁interface
▁rocks
gam
▁colonies
▁wildlife
▁notice
▁conscious
▁achievement
▁pale
▁artistic
▁peer
amine
stad
▁mg
▁volt
▁trump
▁baptist
group
▁concerning
▁gat
▁dispute
▁implemented
iii
▁cort
enburg
▁milk
▁contribution
jack
cos
▁execution
▁orleans
▁battery
▁violin
▁democrats
illo
▁sentence
▁keeping
dor
▁conversion
▁illustrated
▁agencies
▁empt
stood
▁seal
▁filed
▁finals
▁nhl
▁cardinal
othe
▁falling
▁explicit
▁furthermore
▁punk
▁torn
▁marvel
▁atmosphere
wig
▁exposed
)"
▁administer
fm
▁adults
▁guards
▁scholarship
▁manufacturer
▁clan
akespe
pled
▁settlements
some
▁deriv
▁interchange
▁kg
cht
▁coup
▁ukraine
▁explan
▁tied
▁jerry
▁quantum
▁mainland
▁writes
fi
▁gap
disambiguation
▁amaz
▁bund
▁suburb
▁danc
▁tomb
ums
▁dramatic
▁visiting
▁partners
▁birthday
▁romania
▁ceo
▁lifetime
▁regulations
▁drivers
▁swimming
feld
▁syndrome
▁discontin
▁migr
▁vertical
pen
▁pittsburgh
▁barn
▁christians
▁trials
▁glas
occ
▁flex
▁variations
▁barbara
rob
▁pioneer
walk
ogan
▁soci
▁alien
▁survive
▁finnish
▁caribbean
ethe
▁shan
isp
march
▁repair
▁appointment
▁democrat
▁instruction
▁(;
▁chrom
▁kan
fun
▁stere
oard
▁meters
agh
▁lose
▁evans
▁intermedi
enz
▁boss
▁um
itary
ulu
found
▁characteristic
▁advice
▁kur
▁sut
▁butter
making
mother
én
▁motors
▁(0.0%)
▁crystal
▁dup
▁connections
▁stevens
akespeare
chron
geon
▁godd
▁gym
▁rhod
▁algebra
▁rogers
assy
▁neuro
anne
▁evangel
-00,
▁hampshire
▁cogn
sat
▁measured
▁grammar
%)
▁tap
▁overseas
▁rico
▁sic
▁hawaii
▁acoust
▁buddhist
august
▁indicates
▁shops
▁nev
▁merger
▁plastic
oric
▁wake
▁metres
▁thunder
▁acknowled
▁sacred
▁ceased
▁sustain
▁facing
▁profile
▁bridges
▁buses
▁affair
▁commanded
▁earthqu
cia
ixon
▁initiative
gle
case
▁guil
▁nova
▁comparison
▁carn
▁×
▁alternate
▁noise
▁wells
▁sib
00.
▁lowest
▁tak
▁mason
▁breaking
ilding
▁lights
▁bone
▁violent
▁restaurants
▁hier
▁ruler
aman
music
▁doctrine
▁bent
nik
▁lords
▁injuries
▁municipalities
▁rio
ensively
▁manual
▁hugh
▁rac
▁lav
▁meg
▁reportedly
▁scientist
▁charlie
▁percussion
▁waves
anim
teenth
▁beauty
speaking
▁minute
▁vancouver
oons
▁pearl
▁cruc
▁torped
▁cran
▁yugoslav
▁possession
▁alive
▁.000
rection
▁vin
▁leban
uzz
▁wre
▁monte
fts
▁anchor
▁beer
▁stones
▁dictionary
▁glac
▁faster
▁carlos
▁hydrogen
idal
▁equation
▁avo
▁rush
ocation
▁categories
estone
▁farming
▁marit
mor
hero
▁jonathan
▁remote
▁gods
raham
▁bug
mac
▁galax
▁athens
▁feud
▁terry
▁railways
▁discussed
▁glen
▁conquest
▁heights
▁ukrain
▁fasc
▁phon
▁therapy
▁businessman
▁guine
▁locomotive
enez
▁restricted
▁rhythm
▁helping
▁negotiations
hs
▁globe
▁reducing
▁arkansas
minster
▁chancellor
▁surviv
▁rebuilt
▁implementation
▁alaska
▁keyboards
▁mud
ario
▁platforms
▁slowly
god
▁diverse
▁convin
▁exactly
▁subsidiary
▁exclusively
▁lip
▁distinctive
▁consolid
appo
▁auto
▁agree
▁chick
▁camps
▁defeating
▁demonstrated
▁delivery
▁aimed
▁cultures
▁usual
stan
▁protocol
▁arrow
▁recovered
jour
active
▁buffalo
▁remix
gir
acht
▁duc
▁sevent
▁succession
▁pont
chief
▁colomb
▁everyone
▁turner
▁climb
▁seeing
▁niger
▁boeing
▁muslims
▁unless
stre
▁opportunities
▁grave
▁manifest
▁recommend
▁disorder
▁pon
alt
▁hidden
▁kirk
▁powered
little
▁assets
▁erected
▁bases
▁illness
▁schedule
▁cliff
▁crimes
▁gur
▁grove
▁talent
▁phenomen
▁andy
▁gren
illing
▁surve
▁compact
▁woods
etary
▁particles
▁kw
▁clothing
aco
turn
▁guarant
lane
iler
▁insect
▁establishing
▁thanks
nt
helm
▁diplomatic
▁artificial
▁vector
▁autobi
▁diameter
▁ordinary
▁electricity
▁spending
▁intellectual
▁gust
▁herbert
▁organic
profit
▁palm
▁server
▁gw
nan
▁brooklyn
▁thinking
▁fighters
▁0,000,000
agre
▁brew
▁wedding
▁amounts
▁scout
▁jurisdiction
olition
▁anthrop
upt
0.0
▁caf
▁cattle
▁abst
▁rect
▁debuted
arest
▁traveled
icular
▁coins
▁boule
▁referring
▁enemies
▁concepts
▁decom
orient
▁gamb
▁loyal
▁$0.0
▁participation
eu
▁axis
▁tie
0"
▁rip
▁oz
mary
lord
eper
haust
▁pill
▁taxes
▁sarah
▁manip
▁database
▁motiv
▁invented
▁ibm
▁poison
▁lloyd
▁encycl
pel
▁congressional
▁ov
▁winners
▁procedure
▁tig
▁corp
▁parade
third
election
gus
▁horror
▁disaster
▁armies
mons
emed
▁participants
ayan
▁penalty
▁ferr
▁nord
▁load
▁answer
▁landed
uable
▁banned
bad
iko
▁fluid
alan
▁worst
▁tries
▁shakespeare
▁behalf
▁tea
▁vib
▁controls
▁comprehensive
▁marqu
▁''00
▁dict
olph
▁foster
▁printing
▁citizen
▁strat
▁happy
auge
▁sack
▁suspended
ao
▁stem
core
▁prayer
▁renaissance
▁solutions
yll
terior
▁doors
▁enthus
▁breed
▁attempting
gom
▁infin
heart
▁sees
▁excav
esty
acc
▁describing
▁departments
imir
▁ampl
▁facilit
▁fold
▁deployed
▁declaration
▁utah
-0,
▁diesel
▁indonesia
▁henri
▁pian
▁harold
▁responded
▁wider
▁recovery
▁forg
sol
▁maine
▁permitted
▁floren
▁toll
▁dakota
iture
asia
▁divine
▁dos
▁physician
▁cuba
▁brick
union
▁perspective
cut
▁abuse
▁funeral
▁choir
▁norfolk
ensis
ails
▁supplement
▁kne
rig
encing
▁influences
owski
▁coinc
▁removal
▁demolished
hot
▁fortress
▁celebration
▁£00
▁kiss
▁convert
▁malaysia
▁partial
nia
▁myster
▁bil
▁gabri
was
▁reverse
▁yorkshire
▁stick
▁wish
▁tum
▁burg
closed
june
kov
▁cooperation
▁bristol
▁spell
▁tet
▁jason
never
▁perceived
▁ninth
▁franç
▁announce
▁spa
▁coin
bas
▁amph
ieth
common
▁crossed
▁walking
amese
▁reforms
▁catherine
modern
▁mercury
uchy
fly
▁crater
position
▁dollars
enberg
soc
▁vas
▁novelist
aks
▁marx
▁forth
oni
▁smooth
▁reservoir
▁inject
ophone
▁larry
▁territorial
▁opponents
▁unsuccessful
▁acted
▁confer
▁clinical
-00.
los
mates
▁sect
▁devoted
mich
▁buddh
ester
week
▁kath
▁alice
ennial
maker
▁emphasis
▁byzantine
▁newton
april
▁improvements
▁reed
▁chand
▁dil
▁tons
nat
▁options
▁manor
▁alter
▁slav
▁simultaneously
▁immigration
▁wheels
cra
▁exit
▁gig
▁exhaust
▁studying
▁prototype
piece
▁till
▁stuart
▁stal
made
oys
▁abroad
▁activist
tom
▁tale
▁sponsored
▁archaeological
▁difficulty
▁ski
▁theology
▁math
▁enh
▁bish
ailand
▁wealthy
▁donated
pher
▁scat
▁breeding
▁verse
▁butler
▁favorite
ugu
▁coffee
▁algorithm
▁portland
▁isolated
▁condem
david
▁hein
▁phoenix
gence
erated
ollo
langu
▁dust
▁vern
▁resol
▁robin
▁closing
ulus
▁prol
lu
▁competitive
▁maritime
cre
▁sung
through
omorph
000,
▁legs
▁escort
main
▁cros
october
ulum
▁camb
atern
▁explain
▁gospel
▁oliver
▁rangers
employ
▁craft
▁victorian
rill
gart
caa
ipher
▁ranges
▁friendship
▁understood
▁manufacturers
▁architectural
▁borrow
▁sull
original
rah
sized
▁chip
▁trinity
▁toured
▁petro
▁vincent
▁resource
▁cc
▁pla
pit
▁merely
▁spectrum
▁holland
▁qualified
▁trek
▁photographs
▁font
▁photography
▁infer
▁nickname
▁0–00
▁encyclop
▁besides
gard
▁mam
▁keyboard
rub
igious
▁nasa
▁belgian
▁permission
▁ig
▁seemed
▁stored
onda
▁rolling
▁consistent
▁framework
▁0000'
▁exclusive
omon
aa
winning
▁denomin
▁embassy
▁cauc
gel
▁locomotives
▁frances
somet
brook
▁consumption
▁mirror
sum
▁essay
▁venue
▁evac
icon
▁inspiration
▁laser
▁depict
▁youngest
inals
olly
▁friendly
▁descendants
▁pref
▁fewer
▁0000''
▁ottawa
▁ranging
▁pilots
cult
▁regist
▁spider
▁(00.0
omous
▁portions
▁chlor
keep
imensional
porter
▁coron
▁sequel
▁ties
eva
▁package
▁intersection
▁symmet
july
▁pret
▁heroes
▁judges
▁campaigns
arked
▁initiated
▁lon
▁ongoing
▁aboard
▁societies
▁enforcement
achment
▁kle
▁maced
▁guild
igible
rous
▁monthly
▁mul
▁rim
▁credits
▁ug
▁pub
mits
smith
▁licensed
▁napoleon
▁competed
▁tours
family
▁uncertain
▁telesc
▁alberta
alia
▁eliminated
▁liberation
▁shaw
ationally
▁certific
▁basil
▁tenure
▁shorter
▁lenn
last
tan
language
sts
▁gif
▁feeling
▁obvious
eters
▁familiar
eb
▁compound
▁pi
▁duo
oded
▁lor
ierra
▁designation
▁ports
▁archives
▁caes
▁friday
▁signing
▁reporter
▁prove
▁mak
europe
▁extend
▁cutting
september
▁extensively
encer
▁queensland
uy
▁ivan
aments
▁flour
incorpor
▁ensemb
hur
minute
▁tract
▁gilbert
▁keith
▁suspension
0-
▁bullet
card
▁acquisition
▁apartment
df
▁convicted
▁romanian
written
▁recru
▁promin
owed
▁gift
anti
▁ukrainian
▁currency
▁rav
▁diseases
▁glasgow
▁kay
▁epic
▁ranking
▁efficiency
▁presents
▁aber
▁0/0
▁tales
▁acoustic
ibilities
kel
asi
stop
▁prosper
▁inhib
inus
shaped
lon
▁looked
▁ralph
thy
essed
uter
.),
▁milan
eto
▁recognised
▁competing
base
▁conclusion
sam
▁thailand
▁aug
▁vlad
five
▁shir
▁dennis
▁cancelled
▁atomic
▁wis
serv
acts
roph
zing
▁lis
agement
▁stran
▁handle
jud
▁warning
▁commentary
▁charlotte
▁abraham
▁enterprise
left
▁rings
▁mixture
cell
about
▁autumn
▁mant
▁sentenced
▁ticket
▁bars
zh
inum
▁presidency
▁arnold
osexual
mos
▁bever
▁subdiv
▁dir
▁steven
▁functional
▁reconstruction
▁hood
▁peas
▁difficulties
▁subsc
▁outbreak
▁boulevard
▁legacy
▁trigger
▁abbre
▁targets
▁legion
▁structural
▁dale
history
▁mild
▁rational
▁accessible
▁edwards
▁−
▁rounds
▁arbit
▁mh
▁sculpture
▁accurate
▁proteins
▁valuable
▁lank
cker
▁recur
▁filming
▁leo
▁kos
▁peaked
▁comfort
▁pam
▁legit
▁extract
▁morph
▁disk
rise
▁giants
lived
▁sick
▁lag
▁thereby
▁dismissed
estyle
▁situations
▁ue
▁lesser
▁regul
▁guilty
tre
▁hack
▁destination
▁relocated
▁veloc
▁bert
avel
▁bulgar
emic
▁hughes
roe
▁orn
▁tight
george
▁firing
▁trim
▁venez
▁burned
prof
ested
▁inspect
▁interviews
▁argues
omas
▁chase
boat
▁pond
drew
▁listen
▁counsel
▁hybrid
design
▁toler
oka
▁preparation
eston
cott
fted
aughter
▁muscle
▁unf
▁plains
▁intermediate
ortion
''"
▁ruth
▁craig
james
▁wallace
eta
▁interaction
▁beliefs
▁goddess
tur
▁bombing
▁ultimate
agonist
▁deliber
comp
▁hil
▁memoir
▁grandfather
riev
▁boom
▁harvest
ulous
▁flew
▁recipient
▁subt
ether
▁reflected
▁dependent
human
forced
▁oral
▁quiet
bing
▁afford
▁narrative
▁stamp
adian
▁improvement
▁requiring
itudes
▁herald
▁mystery
pic
▁victim
ido
▁forum
▁push
▁haven
cribed
▁(0.00
intern
incorporated
▁convinced
▁kids
illes
▁bare
▁unity
▁grid
▁preserve
dimensional
dal
▁chest
▁bav
▁saved
▁cloud
▁guardian
▁reporting
▁neighboring
▁commented
▁believes
▁aux
▁sailed
▁bce
▁exile
▁mold
rium
▁mend
▁arriving
agger
▁martial
▁danger
▁venture
aku
lings
▁fifteen
▁elabor
▁ask
▁rede
cester
▁memor
▁guit
osaur
▁spar
▁companion
▁tiger
▁fault
▁rally
ampton
▁towers
▁respective
▁undergraduate
▁iceland
erg
▁luis
▁compat
▁certified
gomery
▁bore
▁fulf
▁funded
▁tissue
even
etta
▁runner
▁consequently
▁perry
itan
swick
lou
▁excellent
▁blow
kan
▁swing
roid
▁shipping
▁separation
▁volunteers
kir
ymond
zed
▁readers
▁ratings
stown
arus
aser
screen
▁yam
▁mineral
▁friedrich
▁forty
care
mah
atra
▁pom
▁harvey
space
▁diocese
uka
▁absolute
▁objective
wheel
▁burning
▁optical
cca
▁receives
idd
january
▁impress
ruit
▁predecessor
oft
▁frontier
▁probability
▁photos
▁signature
▁raid
▁signif
▁guinea
▁privile
▁bobby
▁reaches
▁plaza
▁picked
nar
eric
step
effic
▁jump
▁vegas
▁craw
▁attending
▁approaches
word
▁voltage
gb
▁archive
iev
▁spl
▁knights
hon
▁accum
▁molecular
icance
tem
▁passion
▁confused
▁phosph
▁vig
▁jama
▁traded
zes
rates
▁magazines
▁retain
japan
▁behaviour
▁chi
▁timber
▁reorgan
▁disband
utt
unct
▁sure
▁eldest
abel
▁eddie
▁rhodes
▁crypt
▁tol
▁latest
▁demands
they
▁symbols
▁willing
▁statements
itic
▁publishers
holm
▁abund
listed
▁veterans
▁warriors
▁codes
▁lamb
spring
paul
▁cannon
▁00,000.
ahl
▁ferdin
▁villa
▁collaps
▁secured
▁requested
▁regardless
▁burial
▁fed
estab
▁sanct
ovakia
intendo
▁hammer
bank
▁welf
▁promoting
▁pointed
avery
anning
▁moderate
conn
▁ng
▁elite
▁pursue
▁cum
idel
oro
▁innings
▁faces
▁gregory
official
▁specialized
▁kap
▁client
▁chel
▁tribut
▁premiered
▁hp
coll
went
▁iranian
▁guitars
▁oblig
▁ronald
▁heavyweight
▁conductor
▁terminus
▁celtic
december
-00)
▁touchdown
▁nad
▁mathematic
▁curve
▁travels
▁ethiop
▁elevated
▁fifty
rien
▁spend
compass
▁smart
psy
▁fee
▁berkeley
uela
▁anime
▁freight
▁bankrupt
▁operators
▁displays
acon
▁delaware
november
archy
eli
▁abolished
▁neil
▁counterpart
▁£000
▁recruit
issions
▁shuttle
▁significance
▁pairs
▁consort
▁bicy
▁aside
▁assisted
▁temporarily
▁tibet
▁volunteer
▁eis
aba
▁corruption
▁phenomenon
▁elevation
▁grammy
▁escaped
▁cann
grade
▁retreat
▁alumn
▁departed
▁slavery
▁jury
▁nevada
▁tru
although
avia
▁abilities
▁bangl
▁easier
gements
▁approached
▁organis
pling
▁answ
page
▁alphabet
▁scores
▁manage
▁proportion
▁outdoor
amo
▁arsen
▁patt
▁chronic
▁virtually
▁surn
▁000–000.
▁chamb
▁dischar
hom
▁raymond
▁navigation
▁verb
phan
|''
▁attendance
▁exhibit
aven
▁peng
▁otto
▁varies
rogen
▁bishops
iji
▁maintaining
▁habitat
▁mechanics
ogle
pc
▁inherited
▁supplied
▁canton
▁fc
ported
▁egg
▁sitting
▁casualties
▁psychological
jor
anton
▁philippine
▁vital
▁venice
▁compounds
▁videos
▁alumin
▁wants
▁stol
ün
ovo
▁innoc
▁empty
isk
▁customs
▁fairly
▁referend
aha
▁madrid
▁marry
▁followers
▁competitions
vision
▁gauge
▁aar
▁wait
▁ernest
▁housed
▁pm
rupted
▁nun
cover
ylon
sou
▁unex
▁guests
fo
fan
▁withdrew
▁montgomery
link
iry
gio
▁brunswick
▁nerv
▁leop
▁beam
▁sulf
▁watson
▁tested
▁pitcher
ocy
▁murdered
lett
ouses
lection
▁yale
▁fallen
▁xx
cin
ön
▁configuration
▁mutual
▁connects
▁antiqu
▁organised
▁mcl
▁biology
ów
▁mete
▁nose
▁honey
▁stein
uin
▁xi
▁viewers
onduct
▁julian
▁drinking
▁developments
▁voiced
▁festivals
▁jacques
▁electronics
▁helps
robert
▁lig
▁testament
sterdam
▁restrictions
▁botan
pi
▁conspir
▁examination
▁liz
▁resid
▁pock
▁carries
▁helen
▁bombard
▁inducted
enged
▁ps
ipped
▁0000–0000)
▁ost
▁handling
month
▁recreation
▁placing
▁oscar
▁pushed
▁romans
▁ncaa
▁stops
rift
▁murphy
▁broadcasts
▁kab
▁joan
▁maintains
▁madison
every
▁array
▁dancing
▁canyon
▁anten
▁depends
▁bypass
▁libert
▁eve
▁mk
▁pist
▁redes
ye
irect
oda
▁integration
▁define
oning
▁susan
▁doubt
pine
▁mamm
alb
▁parking
▁affiliate
▁landmark
▁heath
ichi
▁acres
▁massacre
▁westminster
▁regulation
▁gn
▁deemed
inte
ław
▁keys
▁strings
▁mythology
▁bloom
▁dish
▁somers
▁attacking
very
▁radi
▁skill
▁topics
ellation
▁profit
anni
itals
▁bros
▁observation
▁welfare
bast
bone
▁relevant
▁doesn
▁traveling
sun
▁ja
▁judicial
▁libraries
▁chester
▁specified
▁devil
▁lunar
▁stability
▁submitted
▁trouble
▁sharing
▁fifa
▁independently
vet
▁scre
▁photographer
size
▁ster
▁fate
icas
ulsion
▁permit
norm
▁lex
▁explains
▁raising
agram
▁marshal
▁0000–0000.
stage
▁secular
▁collective
bie
incinn
▁varieties
mb
▁palmer
▁gem
▁athletics
▁pedro
▁centres
ijing
annel
▁administered
sburg
▁requirement
eted
▁estates
▁ware
haus
▁lodge
▁recalled
▁dissolved
▁aster
mot
rapped
techn
▁earthquake
bes
▁og
record
▁polyn
▁nights
▁buc
▁endors
▁updated
▁conjun
enda
quer
▁dialogue
aters
▁leonard
▁robot
▁necessarily
▁philosophical
▁comprom
uer
▁florence
regular
▁va
▁intense
▁ferdinand
▁wheat
six
▁syria
▁theoretical
▁helicopter
▁bren
▁nephe
▁mys
elected
▁cox
guard
▁programmes
bin
verse
▁gaz
▁reader
rav
▁fabric
lee
▁distinguish
▁gest
▁sporting
▁angels
built
▁millenn
▁survival
▁variants
▁attraction
flow
▁preservation
▁literally
▁dawn
▁manga
▁discontinued
▁destro
▁emotional
▁tear
▁prevented
▁spacecraft
▁concentrated
stock
▁burns
▁internationally
▁circular
▁thorn
phant
▁bened
▁bonus
ports
herent
▁trio
▁rocky
held
▁deer
▁crosses
▁marath
▁gothic
▁precip
had
▁fortune
▁hide
eda
▁vocalist
▁sheep
arr
ku
incinnati
▁--
▁serbia
okes
▁voices
enders
▁samples
fight
▁0000–
▁observations
aho
opy
▁informed
▁aus
▁neo
▁anglican
vas
▁waiting
mu
▁unincorporated
▁playoffs
▁politicians
eff
▁humid
▁lp
▁generations
▁bread
▁aerial
▁ballet
▁sap
flu
▁lung
▁affiliated
ovich
▁syl
▁sul
▁phillips
▁prospect
boro
beat
cock
lical
▁nintendo
abad
▁petition
▁destroyer
▁zoo
▁disturb
michael
lain
▁missed
▁enters
▁varying
anta
▁closest
▁isaac
▁travelled
orious
▁gentle
▁intervention
namese
▁holmes
▁thermal
mur
ships
▁resignation
ifier
▁essays
cam
▁intercept
▁comments
▁entity
▁clergy
▁dw
▁sullivan
▁freeway
▁premiere
▁northwestern
▁retriev
writing
▁wilhelm
series
▁autonomous
▁severely
named
ilian
▁viii
urbs
▁advertis
▁moz
▁advocate
▁infection
achi
▁talks
▁identification
▁songwriter
ashes
▁promised
▁hann
▁foods
▁wilder
rand
▁lift
▁peru
▁patriarch
▁prisoner
umberland
▁repeatedly
rington
atar
istent
▁comedian
both
fortun
▁josh
▁obama
stitution
▁tram
▁punishment
▁infect
▁hypothesis
▁dynamic
▁toxic
▁navig
▁witch
▁columns
▁corrid
▁delayed
▁armstrong
▁belonged
omed
▁syll
▁conce
english
sn
▁ml
▁encompass
▁authen
february
▁copyright
▁divorce
▁mood
▁southeastern
▁sans
▁caps
▁virus
▁revolt
▁switched
iast
▁ancestry
▁carriers
▁managing
▁scandal
▁defended
asian
▁finite
▁silent
russ
uman
▁reveals
▁rut
▁chev
▁soap
▁involve
sir
▁indicating
▁addressed
▁carr
▁crops
▁duck
▁visits
▁physic
▁prefecture
▁obsc
▁sony
▁autobiography
▁disappo
▁astronom
▁varied
▁conven
rys
school
▁concur
pot
erals
▁pilgr
▁decrease
▁contracts
odies
▁lighting
▁widow
▁particle
▁bach
▁farms
él
▁warsaw
▁beck
▁abstract
▁inver
▁amsterdam
▁instructions
▁cream
london
▁dimension
▁nationalist
▁munich
▁molecules
▁unions
▁(0000):
▁posted
▁vamp
▁plates
▁sak
▁explorer
▁procedures
▁bulk
▁seeds
▁yang
oshi
▁automobile
▁unemploy
teries
braska
▁geographic
▁suburban
▁rotation
▁exchang
▁closure
▁graphic
idad
▁proxim
▁assassin
▁sending
avian
▁integral
▁duchy
▁geoff
▁tasks
▁presby
▁transformation
▁hir
▁wang
▁explanation
mand
noon
abe
▁messages
▁garrison
look
▁platinum
▁awareness
acco
woman
▁steep
▁thorough
▁java
asha
french
▁edmund
▁serbian
▁wu
ishi
adows
▁militia
▁penet
▁desk
nut
olith
▁skull
▁manit
▁teeth
▁(0000);
▁hd
▁inland
▁franco
▁tenth
▁argue
oku
▁pulled
▁installation
leys
▁ritual
▁variables
▁forcing
songwriter
isan
▁sierra
▁altitude
▁looks
▁reformed
▁voyage
▁lions
▁constantin
▁velocity
▁derby
▁tommy
▁reactions
▁enact
▁leather
▁cott
▁accommodate
onna
▁desired
▁metall
▁minimal
▁bonds
▁plural
▁altered
▁confusion
▁considering
▁rated
aic
imp
▁releg
▁recall
▁assessment
uto
rets
▁decide
▁notion
▁bulgaria
▁conflicts
uba
▁singh
▁poets
▁occasional
▁princeton
▁demanded
▁governing
▁torpedo
▁arrangements
▁estimates
▁bend
▁computing
▁0,000.0
▁psychiat
▁documented
▁relating
▁fraud
▁interactive
apped
▁governed
inters
▁grades
▁qualifying
hin
▁plas
▁franz
arms
▁noun
▁ensemble
▁remembered
▁applic
▁interpreted
▁trium
▁detective
▁migration
▁tin
▁prey
oko
▁chorus
▁wore
▁putting
electric
▁drove
▁mansion
▁beta
▁uefa
▁extending
▁referendum
▁montana
▁customer
hd
▁cincinnati
▁presentation
▁diversity
onso
▁reception
▁footage
▁tourists
▁observatory
giate
▁generate
aby
aqu
▁breath
▁vulner
▁surprise
▁namely
▁predominantly
▁odd
▁culmin
▁luke
▁circulation
▁twentieth
▁cruise
▁naturally
▁dollar
▁missiles
▁creator
▁capitol
▁bak
ghai
▁drain
▁encountered
pac
▁nu
▁todd
▁protests
▁citing
▁bearing
▁veteran
▁buddhism
▁scor
▁sacrif
stead
▁moroc
▁bennett
struct
▁bio
keeper
▁considerably
0).
▁wiz
▁relie
▁iraqi
▁stack
selling
▁imprisoned
▁hamlet
▁properly
▁iso
▁civic
▁suburbs
▁payment
▁apollo
ricks
▁0–0,
▁fatal
kees
/000
▁manuel
▁biblical
▁stronger
▁tamil
▁laugh
▁seriously
ective
▁resumed
▁creates
▁strange
▁sequences
ups
▁receiver
▁complement
stud
▁thirteen
iri
▁interesting
▁mixing
avan
▁denver
▁hast
gg
▁naming
▁equally
▁singers
▁brooks
▁kidn
▁bm
▁trend
▁monster
▁resur
▁beatles
jar
▁mt
▁£0
rust
▁ske
▁methodist
plan
▁stake
▁reconnaissance
▁beijing
ucker
▁finger
▁enabled
▁sue
▁google
▁substance
umi
mail
▁dow
▁triangle
▁vietnamese
auer
dc
▁valent
▁|
▁consequence
▁dialects
▁aggreg
oriented
film
▁pronounced
len
lov
▁galaxy
church
▁afternoon
▁rup
▁maz
▁turbo
▁transformed
▁ein
▁purple
▁geometry
bir
▁reyn
▁skel
▁realized
▁highland
rio
▁stern
▁legendary
▁mouse
channel
▁potentially
▁sz
munition
gary
▁gathered
▁bangladesh
sole
▁challenged
hung
aude
▁croatia
▁reich
▁troubl
▁newcastle
▁colours
▁cuts
▁clarke
▁hes
▁mtv
▁*#
chair
▁prepare
▁sheet
▁opens
▁meteor
enter
"''
▁telling
anga
▁breast
esters
▁explosion
▁ana
▁(00.0%
inery
▁indoor
▁nato
▁bomber
▁boxing
▁sox
▁hod
▁rodr
▁lebanon
▁neighbouring
▁worker
cill
omial
▁isle
aca
repren
▁banking
▁dealing
▁gly
plane
▁0000/00
▁pump
powered
▁attitude
▁asking
▁authorized
▁summers
osed
dep
▁fus
▁tens
jab
▁seas
▁assassination
▁engage
dez
adier
▁theatrical
unes
▁spy
▁asks
rs
oding
▁gabriel
▁dubbed
▁maurice
▁synthesis
▁lamp
▁petersburg
▁romance
kal
▁bones
▁inhabited
▁são
apters
▁width
▁doctors
▁delhi
austral
▁renowned
aws
▁devast
british
▁utility
▁completing
mant
atlant
▁exploration
▁grain
▁quoted
▁audiences
▁gravity
ateral
iors
▁extinct
▁comprises
▁mentions
▁prussia
▁metab
▁nathan
sted
▁arrive
ogs
rolling
▁grandson
▁beating
▁sah
acles
▁hoped
▁humanity
▁dimensions
▁crop
▁segments
wash
▁abu
▁ammunition
▁monk
▁gast
▁manufacture
="0"
european
▁dart
▁physi
ffield
happ
▁pianist
▁artif
▁kinds
▁farmer
▁extends
▁predict
▁spencer
▁recognize
▁wellington
▁sink
▁stanford
lined
▁permanently
icing
▁focuses
▁ramp
▁0.000
▁earning
▁nebraska
▁playwright
sem
▁northeastern
▁editorial
▁mate
▁gaining
▁strikes
▁enhance
▁mann
home
▁exercis
doctor
▁horizontal
▁anticip
▁beneath
▁gand
▁swan
▁weaken
aders
▁walt
▁medals
▁au
▁viscount
dar
?''
▁planes
▁darwin
ér
wy
▁citizenship
uum
▁hed
▁ruins
hanced
▁00–0
▁reinforce
▁personally
▁provisions
▁rabbi
ushing
▁cun
length
▁columbus
▁leeds
▁allegedly
▁conson
▁monop
▁treasury
rez
▁sheriff
▁homer
▁trace
▁binding
▁belonging
anium
mil
▁lucas
continent
cross
dig
▁icon
▁#000
ión
ogical
▁composers
rooms
▁teleg
▁schem
math
▁powell
▁00°
▁monday
▁tradem
▁smoke
▁contribute
rano
▁pum
''0
osl
say
camp
▁spo
▁overw
mania
rev
ea
cas
▁span
▁vine
▁pep
▁entrepren
▁nineteenth
ologically
▁fare
atche
▁pace
▁nephew
cycle
▁opposing
journal
▁boot
rating
▁rubber
▁consciousness
isch
▁sailing
▁warrior
▁tactical
hart
▁breaks
▁shots
▁stir
▁bench
oming
▁conjunction
▁cameron
▁taste
▁0000-0000.
central
▁eccles
▁brut
▁tribal
▁feelings
▁highways
▁wrestler
▁ud
▁tack
▁cruiser
▁priests
▁flank
▁tobacco
▁ply
▁distant
▁underlying
▁mhz
▁fusion
▁millions
jer
▁uprising
▁cere
iper
polit
▁hms
zig
▁reward
▁tril
▁kun
▁oxid
▁dent
▁duration
caster
▁lectures
raw
--
▁failing
▁orientation
story
▁happen
▁bulg
party
▁berg
▁00/00
oline
amation
▁challenges
erver
▁restore
▁bohem
▁mosque
▁stroke
▁gol
▁expanding
xx
▁lens
▁yu
▁boards
cir
▁refugees
▁automatically
▁fount
atever
▁cabin
▁merit
▁dreams
▁choos
▁nur
building
▁thames
▁chambers
▁revenge
▁moreover
▁republicans
bay
▁geographical
▁layers
▁celebrate
aneous
▁confidence
▁immun
wel
▁episcop
▁leagues
▁vermont
▁saudi
▁assert
urated
▁bub
▁dio
▁spelling
▁organisations
▁volunt
▁enlar
▁disagre
0),
tex
▁jail
▁spur
ativity
▁arguments
▁md
▁depot
▁surfaces
books
▁adela
▁gathering
▁newer
▁plug
▁sustained
▁loren
▁feather
▁senators
elines
▁roth
jim
''(''
dles
▁shaped
▁civilians
▁dys
▁gibson
ominated
▁adoption
▁eventual
ović
▁lutheran
nort
orate
▁hook
▁subway
▁airways
▁certificate
▁preval
▁anger
▁dwar
▁overl
itus
▁invention
▁dh
▁brass
▁striking
▁missionary
▁directions
▁worlds
▁0/00
▁layout
▁assembled
▁somerset
▁barcel
▁curric
stration
▁compiled
▁acknowledged
▁wasn
▁00–00.
▁fron
finals
▁inches
▁rulers
▁tactics
▁fier
▁ub
▁uc
izz
▁vat
▁manitoba
▁palestine
enos
▁talking
▁mask
yo
▁á
roc
▁reserves
uli
▁anarch
istle
▁filip
▁estimate
▁snake
aun
▁chapters
png
park
agers
▁unfortun
▁bills
asters
▁comprising
▁dome
▁numbered
▁rainfall
▁sv
▁nicknamed
iffe
▁unified
oan
bolic
▁perpet
▁actively
▁ras
▁graduating
omi
▁kenneth
aukee
cession
▁terrain
▁hospitals
▁essex
▁transp
▁absorbed
▁theological
text
▁sergeant
▁rook
▁ace
▁brah
▁dying
aping
▁differential
orms
▁sask
▁gonz
▁pete
sar
▁hollow
▁daw
▁rebels
▁shoulder
▁kor
▁engagement
▁impression
▁fet
▁dimin
▁constra
opened
▁boost
▁revived
rimination
▁colombia
omo
gang
▁sandy
cu
half
boys
▁cruz
▁churchill
▁homosexual
isons
▁armenian
reats
furt
▁promise
▁equations
▁millennium
▁stabil
▁innovation
▁occurring
▁nancy
▁antib
▁decorated
▁encyclopedia
agi
▁employee
▁cuban
.).
▁indies
▁airfield
▁crack
jet
▁valve
holders
▁alumni
▁measurement
bud
▁spokes
since
▁brill
▁alger
▁centered
peter
▁developers
▁posts
▁playstation
engine
▁eating
icia
▁capabilities
▁dors
▁strait
▁tut
▁laz
.:
▁bassist
▁presbyter
▁yugoslavia
▁revel
acular
▁errors
▁encourage
▁suggesting
▁vest
▁cameras
itely
bot
has
▁fract
▁reluct
▁posthum
▁cu
ystem
esian
:0
▁newport
mud
▁wald
▁southwestern
▁fol
▁accomplished
▁rifles
▁armoured
vern
▁performers
▁disappeared
▁tables
backs
▁chin
obe
blood
▁discipline
aning
ensus
▁drives
▁porter
loc
▁suz
▁advisory
▁mull
anthrop
▁telecommun
éd
prus
▁divorced
neys
▁telegraph
▁barrier
▁seized
▁().
▁imposed
▁deeply
▁killer
▁speeds
▁specialist
▁registration
▁bombs
rag
▁graves
▁monarchy
▁indo
▁paras
emy
▁emerging
imo
▁bris
▁enorm
▁underwent
▁rider
▁cathol
▁aggressive
00)
actic
heric
▁shifted
▁continent
▁"...
▁accuracy
▁hipp
▁cancel
borg
▁balls
vs
▁jess
charles
▁mario
▁artwork
ema
ects
▁kills
ampa
▁poles
▁cheese
thor
▁anthe
▁enable
▁harper
▁surname
sons
▁depicting
lake
▁costa
▁sean
▁encounter
▁nationwide
▁solely
athy
▁exterior
▁easter
▁mathematician
capt
▁suddenly
▁adelaide
▁grants
▁danny
▁zones
tc
▁bits
▁commitment
bane
▁criteria
▁councill
▁indirect
anto
▁amal
▁lanka
appa
▁oliv
imm
itter
▁fastest
▁enhanced
▁consequences
▁recruited
▁dece
▁crashed
▁commercially
▁quartet
▁batman
international
lia
▁powder
▁guidance
▁genes
▁caesar
▁sensitive
▁sphere
▁ki
▁chiefs
▁screenplay
”.
member
looking
▁troop
▁(00.0/
saint
▁orch
▁bats
irm
▁gut
▁stolen
▁jen
▁hotels
▁dip
▁lisa
▁bacteria
▁praise
▁appeals
▁magnitude
uctive
▁croatian
xi
▁disbanded
▁evident
wned
▁holes
orf
▁commanding
▁cylinder
▁conquered
▁aest
▁relatives
▁0"
▁experts
vor
▁circles
▁wreck
▁deposits
rud
seat
iliary
bian
▁reagan
plete
waukee
▁onwards
▁simpson
▁0,000.
usters
▁pall
▁proposals
▁thread
▁participating
▁loud
▁capability
▁thai
hess
▁oakland
▁suspected
▁zen
▁scotia
quet
▁durham
▁ming
university
ulk
leton
▁wireless
▁eligible
▁lawsuit
▁legally
▁aur
▁owen
▁suspic
▁strengthe
▁scots
▁certainly
▁decreased
▁poster
missions
▁throw
är
▁proven
produced
etheless
▁sixteen
▁runway
▁0000–00.
▁mb
▁physically
oi
utch
▁temples
▁('
viated
▁prompted
▁andré
▁inventor
▁kern
▁colleagues
▁fires
▁dud
people
▁viv
▁barcelona
riages
ourse
▁davies
▁incumb
▁panama
missioned
▁constantinople
▁survivors
hun
▁mik
omes
▁rebel
▁defending
▁shin
▁constantly
▁postal
▁console
▁flagship
▁adequ
▁tornado
▁nonetheless
▁emmy
inee
ordinary
into
▁bam
▁suspect
number
▁pyram
▁(00)
▁tigers
▁upgraded
▁bee
▁roc
▁macdonald
enues
irts
yers
▁ethn
▁00%.
▁vladimir
▁moor
▁trick
▁focusing
▁springfield
nick
royal
▁newsc
atorial
▁mim
▁membrane
▁0000-0000,
thomas
":
▁suite
won
▁proximity
▁drafted
▁supporter
bob
vide
▁palestinian
sd
▁tech
onments
▁fourteen
itative
▁czechosl
▁item
arin
kers
▁releasing
▁cats
▁kurt
▁digit
▁confront
ocratic
▁bengal
▁gerald
▁observer
xide
▁chal
▁politically
▁magnet
▁benedict
▁dere
▁eighteen
chem
mind
▁kum
▁consent
▁compositions
▁chains
▁decides
uania
▁linux
government
prises
▁legends
▁cyprus
▁commenced
▁module
aton
▁butt
▁pride
▁corridor
▁manuscripts
▁pirates
open
▁fbi
▁sitcom
▁plateau
beck
▁criticised
▁heter
▁overwhel
▁supp
▁arabia
otal
dark
▁nixon
▁giov
▁sheffield
▁chan
▁knows
▁garn
▁conducting
▁trin
olar
ean
▁populated
▁privately
introd
▁storyline
▁victories
▁000.00
▁wals
▁conservatives
▁penal
▁malay
▁mature
▁congregation
▁associations
richard
▁theor
▁travelling
▁vowel
▁cuis
▁gt
ulates
unciation
▁inch
airo
▁recreational
annon
▁dancer
ás
▁collaborated
▁echo
▁wart
▁poorly
▁fossil
icus
▁assign
mn
▁banner
▁''0
dec
▁antar
▁arctic
▁contested
▁environments
▁absent
▁windsor
▁empress
ielder
▁acceptance
cule
▁glou
:''
shore
▁sag
ieu
club
enson
sha
▁milton
arthur
▁journalism
ylan
▁astronaut
-0.
fol
▁shanghai
▁blade
▁johannes
▁enroll
▁dolph
▁inaugural
▁paying
▁nashville
▁architects
estrian
▁batting
▁tul
▁stalin
▁barra
▁professionals
▁cornwall
▁meth
▁kas
▁telescope
▁0000-
max
▁expelled
brand
▁fragment
▁binary
▁kingdoms
ogether
usually
▁styl
▁clause
ependent
▁lying
▁insects
▁civilization
▁endang
▁proclaimed
iao
▁bea
▁arose
▁tok
▁ket
▁neu
ischer
▁ingred
▁sacr
▁protagonist
xy
atories
▁marcus
▁shrine
-0)
▁cater
kingdom
▁sixty
▁sop
▁compensation
▁stretch
▁explicitly
dead
▁owns
▁claud
death
▁alexandria
imer
▁rosen
▁enrolled
▁accounting
▁ard
note
▁acquire
terbury
▁removing
wi
aze
develop
▁faction
▁heading
▁cosm
▁tension
▁governors
▁grande
▁catholics
▁spart
▁lineup
▁mock
ña
▁bast
▁cluster
roman
▁impressed
▁planets
▁disputed
izations
hers
▁contrad
▁irregular
icz
▁decay
ayer
krit
wald
▁transported
▁remar
▁prair
ische
▁findings
pier
▁vend
irical
grave
▁remn
▁lover
▁(0000–00),
▁hawk
▁conspiracy
▁separately
playing
▁eman
▁alg
▁museums
▁richardson
opic
▁0–0.
▁improving
▁inscription
kind
iliation
▁bold
▁pipe
▁plymouth
▁deals
▁carb
▁clement
itated
▁dinner
▁mechanisms
▁facts
isle
▁sudan
chic
▁wagner
▁handed
liber
▁monks
▁ranch
▁bulgarian
▁associates
days
cies
itional
▁aj
▁dame
bai
▁disorders
▁prestigious
agne
▁fing
▁intensity
▁correspondence
▁andrews
▁testim
tingham
▁realm
▁beings
▁persec
▁sketch
▁winters
vict
▁hopkins
▁aids
▁arrives
rams
▁expressway
▁singular
▁withdrawal
▁embed
▁harmony
▁belle
clair
▁eugene
▁honors
▁baldwin
phis
colm
wit
▁quarters
▁likewise
▁fever
plus
rone
▁introduce
▁lub
frank
▁newfound
▁wound
olin
▁venues
▁qualify
▁chen
▁neur
▁armor
▁quint
▁potter
▁dot
quest
▁swift
▁withdrawn
affe
▁clif
▁pupils
▁fees
▁fiber
▁vacuum
apa
▁episcopal
▁allan
neg
▁organisms
▁incor
▁unclear
▁announcement
▁rehab
▁collapsed
▁loved
▁sizes
▁burton
née
▁barrel
▁outcome
▁miguel
▁bowling
▁chronicle
cludes
street
▁diving
ourg
▁aaron
gem
▁insisted
▁thrown
bern
▁riv
▁quot
▁pix
designated
▁tune
▁forever
▁š
agnetic
▁regent
alling
alex
▁jin
▁founders
det
likely
▁developer
▁trails
▁bitter
▁consensus
▁conversation
▁confirm
▁renewed
▁ix
hf
▁plum
▁contributing
0000.
fried
▁silk
author
▁ballot
▁argentine
▁masc
bery
▁reserved
▁interactions
▁nationally
occup
▁arcade
▁invaded
▁duncan
▁loos
▁fratern
▁til
▁badge
▁balk
function
fred
oque
▁cognitive
▁ellis
▁julius
▁sherman
sometimes
▁fellowship
▁judgment
color
▁"00
▁lithuania
▁prohibited
▁consistently
▁discrimination
▁tus
▁pavil
▁atoms
▁equality
▁backed
▁administrator
▁neighb
esco
icity
▁infinite
▁clothes
mov
arium
▁confederation
mut
dev
published
▁reliable
▁lecture
▁americas
▁aboriginal
▁complexity
anch
▁quantity
assis
uanian
gins
▁physicist
▁smallest
ahan
▁ecl
▁performer
▁eagles
▁juda
▁qing
▁bankruptcy
▁lancaster
▁kash
▁dozen
fal
▁download
▁tournaments
▁theodore
▁anthology
▁slot
▁reveal
▁doubles
atta
▁fog
▁lobby
▁religions
▁calculated
▁whatever
ometer
▁000000
▁termed
tax
▁gael
▁blank
▁exercises
▁gö
odia
▁epit
▁rams
▁sebast
▁kom
▁trucks
▁lasting
atoes
▁(00,000
▁ethics
▁labels
▁prague
▁acclaimed
▁unexpected
▁complicated
▁yankees
▁blast
▁ludwig
▁augustus
▁scope
▁investigate
▁liberals
lando
▁colin
▁solomon
▁marking
▁reper
▁carpent
atsu
▁marines
▁editors
▁geneva
fu
▁traged
▁classics
▁mysterious
▁glory
▁derives
▁marketed
stadt
▁inquiry
▁hag
▁cia
▁feast
▁trips
▁seminary
▁firms
ellar
lag
fold
▁brom
cot
avier
$00
▁lanes
▁raids
▁vinyl
jose
estershire
formation
▁crucial
▁fri
▁antenna
▁recurring
▁pursued
▁wc
▁hydra
atem
▁agreements
comput
▁athletes
▁theolog
take
▁fres
▁battleship
▁arsenal
▁quantities
▁unve
harmon
▁evaluation
issa
▁sept
▁clerk
▁nearest
imal
ilder
▁glenn
eastern
horn
▁louise
▁perception
▁bombers
▁confron
▁electrons
▁brands
▁kem
▁aims
▁relay
▁brings
▁tat
▁nerve
▁suffer
▁riot
▁marble
▁allegations
▁cardinals
▁cataly
▁investors
▁hort
azi
▁monitoring
▁blog
makers
▁decis
▁darkness
inda
center
▁excellence
insky
▁witnesses
atics
▁catalog
▁athlete
tro
▁defines
iron
utors
▁stationed
hurst
▁nac
▁settings
▁rust
illon
▁hik
▁milwaukee
ocene
idan
▁believing
▁factories
▁padd
▁booth
operation
▁strictly
▁lightning
▁reynolds
▁lomb
▁consumers
▁consideration
▁detection
▁gm
▁quit
▁flown
▁midnight
▁cig
▁salvador
▁filter
▁conceived
▁revers
▁moments
▁imported
▁differenti
▁panels
▁coaches
ilib
ovsky
▁holdings
▁trustees
eness
000.
▁scal
▁ti
▁flooding
▁deployment
system
conf
▁mammals
▁hex
court
inas
▁tongue
▁feeding
svg
arians
▁airborne
cus
▁moss
▁spite
▁guided
▁saturn
etti
▁gains
▁slip
▁curriculum
▁sovereignty
▁appre
▁carriage
▁threats
▁presum
▁maneu
▁incumbent
species
▁fou
▁malta
▁wer
▁pollution
▁riders
▁luck
▁trilogy
▁publish
fia
▁sho
emann
▁humor
▁''0000
ovan
▁topic
children
▁rivals
eo
▁stockholm
▁foundations
▁councils
▁journalists
▁proceedings
▁atom
▁pled
▁françois
▁frust
happy
essa
inos
▁sculptor
▁contrary
▁elaborate
▁wwe
▁tent
▁martyr
▁rhine
▁admission
▁ceremonies
▁hamburg
▁gel
▁(000–000
▁preparing
ussels
▁furniture
▁volcanic
elia
formed
▁default
▁venezuela
▁presbyterian
▁modes
▁pocket
orum
entry
▁accordance
▁crafts
▁kitchen
▁genet
▁hardy
▁continuously
▁''-
▁abolition
youn
▁measurements
▁editing
▁controlling
▁itv
▁bik
▁frig
▁regiments
▁umb
▁kate
▁robertson
▁carroll
▁streams
▁dominican
▁accus
ska
▁rt
▁eur
▁liu
▁bust
▁predicted
country
▁precise
isting
▁celebrity
▁tier
▁enterprises
▁curtis
▁wickets
queen
▁costume
▁ally
▁morrison
▁technological
▁creatures
▁canterbury
▁sloven
▁reef
▁amphib
▁propaganda
gov
▁plaque
▁stead
▁drawings
▁ling
ucer
▁nem
▁modest
▁inclusion
anned
▁hey
▁owing
▁enormous
▁carne
ente
▁hopes
otten
log
ficial
▁hatch
▁counts
sax
bear
▁loose
▁staged
▁pursuit
▁surrey
▁lighter
seven
▁practiced
termin
▁krist
▁fergus
rians
▁vand
atchewan
elong
▁lauren
▁rey
▁nobility
▁thesis
▁apprent
▁blacks
▁sussex
▁pend
▁condemned
▁shallow
▁00),
aru
▁lut
▁supern
▁nursing
▁badly
▁neighbourhood
▁theod
cz
▁terrorist
omena
▁puzz
▁honours
▁incorrect
ocolate
▁lighth
▁assume
▁diagram
▁priority
▁papal
▁inherit
▁decree
▁wavel
▁exceptions
ilda
▁proceeded
▁lessons
▁frequencies
auc
apor
ymph
▁sodium
▁availability
▁harsh
▁metals
▁cooking
girl
▁sank
▁watching
▁teachings
▁blake
▁evangelical
▁optional
▁spots
▁preventing
▁scattered
▁herb
▁merchants
▁baltic
▁demonstration
▁piet
▁chuck
▁norton
gil
exp
aired
▁linguistic
▁chaos
▁aub
▁auxiliary
▁wesley
▁sweep
prot
▁twins
▁memories
▁rendered
arte
▁vil
▁lifestyle
▁azer
▁judaism
criptions
▁synthes
▁truly
along
founder
▁adolf
▁johnston
wid
▁mph
▁interim
late
▁interference
▁tiny
henry
▁unic
ourable
▁giovanni
igrated
▁formats
▁translations
mile
matic
▁00).
▁entities
▁slam
inf
urities
▁bicycle
▁counted
ogne
▁),
▁reson
▁wagon
▁destroying
educ
▁glad
sten
▁rejo
▁volley
▁shepher
▁graduation
▁dens
▁kang
▁armour
▁cs
restrial
uchi
▁edges
▁targeted
▁bailey
idays
▁laura
▁wo
▁sene
▁considers
oves
▁mongol
▁fragments
headed
▁burke
▁chicken
▁investigations
olithic
▁scandin
▁holl
▁rivalry
aran
▁transmitted
asis
iolet
▁obst
vp
liter
▁dynamics
rt
smouth
loo
thel
▁accessed
▁geography
▁hitting
jug
▁pand
▁pregnant
▁threw
▁trademark
▁fork
▁clients
▁guerr
▁à
social
▁healthy
arab
▁shed
ardi
▁hugo
▁zo
▁stall
▁concord
▁kingston
▁sacrament
battle
overed
normal
▁edgar
neum
mem
▁advocated
▁tendency
▁yuan
2)
abling
glass
popular
▁00''
▁pound
▁beth
▁marl
▁compression
▁parkway
▁innovative
abul
airy
▁committees
-''
▁congressman
igs
▁luxury
▁000-000.
▁sas
▁honored
▁spark
▁noting
▁tends
▁boarding
▁fraction
▁interf
▁fen
▁gustav
avy
atty
▁pounds
▁screenwriter
▁applies
▁carey
este
▁unemployment
▁uncon
▁unlikely
▁crest
▁heating
ahu
istence
▁ancestors
ht
clamation
▁joins
▁artifacts
agonal
0000)
▁berry
▁engra
sour
uctions
founded
▁newman
▁preceding
▁crom
▁medi
00000
wave
▁concerto
eri
ellers
▁dug
▁sear
hit
arts
▁attractions
▁propri
▁greens
vy
▁chrys
▁remarkable
jon
▁monroe
▁commune
lost
▁collegiate
ei
earth
enzie
▁duk
▁astronomy
gee
iscal
▁weigh
▁cuisine
▁bibli
▁processor
nu
▁discovers
igue
video
river
▁moses
▁superman
▁delegates
▁monuments
enny
rik
▁stap
▁patch
▁mccl
▁beaches
▁leslie
▁luxemb
▁inflation
▁*000
short
▁fraser
mass
▁0'',
▁hoff
▁longtime
▁advisor
iba
▁jamaica
▁aa
▁withdraw
millan
▁carved
▁patric
▁substitute
▁wilderness
▁introducing
jac
qual
running
sor
▁cecil
▁blair
swe
umen
▁shelter
▁holder
orth
▁sanctuary
▁bryan
▁reflecting
▁prussian
mith
▁authentic
▁partition
urance
▁explore
▁intelligent
▁manila
▁reads
▁bedford
cp
▁nig
▁morocco
▁pert
▁saskatchewan
itted
▁gaming
▁georgian
▁ussr
▁courage
▁==
▁newfoundland
▁sits
▁cherry
▁coeffic
▁dylan
▁repairs
▁00"
▁transmitter
quin
▁genres
▁consolidated
▁hass
▁button
▁parody
▁demonstrate
kinson
▁bradley
worthy
▁opinions
▁villain
▁salmon
▁discussions
▁terra
adic
▁undergo
▁aftermath
▁floating
▁erupt
▁presidents
lies
▁oath
▁wend
▁polynomial
▁retro
▁greeks
▁retrieved
arded
▁nominations
▁generals
code
▁claren
▁evolutionary
▁indianapolis
ensing
pler
▁monetary
attack
▁lever
▁prefix
oux
wild
▁philanthrop
ioned
special
▁distances
▁vegetation
ocaust
▁circus
▁anthem
syn
▁boliv
▁albany
▁punjab
▁exhibits
▁reunited
▁climbing
fem
▁deterior
▁entrepreneur
▁tac
▁vulnerable
▁reservation
▁athen
▁diplomat
▁nottingham
▁implies
▁parameters
▁linda
▁sicily
▁resolved
host
▁chim
▁fool
▁coined
▁measuring
rice
▁brussels
eve
▁cohen
enhagen
icism
otypes
▁correl
▁arguing
▁atmospheric
▁numer
▁sacrifice
brien
heads
▁cly
▁chat
▁tubes
▁auction
▁handled
jin
ilee
established
▁constantine
▁kol
▁successive
▁casino
0:
▁sara
▁stuff
▁colored
shot
ashire
▁idol
▁thrust
▁concurrent
▁lil
limited
▁comparable
▁idaho
arc
gill
▁kilometers
▁whale
christian
▁ordin
▁hayes
▁prairie
▁advised
hey
▁battlefield
econom
▁specification
▁chop
▁kilometres
▁brisbane
houses
▁edwin
▁pronoun
uen
▁halls
▁flags
▁instances
▁bavaria
▁batteries
fest
▁altar
▁duchess
▁surpass
▁execut
ufficient
tri
▁demo
▁bj
▁viewing
▁ie
▁headquar
▁commands
▁frost
▁juven
▁santi
▁cooling
▁pilgrim
▁lb
▁collector
▁battalions
uckland
▁claude
zel
▁rhode
▁spirits
▁plasma
▁imprisonment
▁stom
▁doug
▁perth
▁commanders
▁beast
▁brack
▁bout
▁henderson
▁doubled
▁payments
enary
process
▁beaten
roke
thouse
isi
tod
atham
stars
▁expense
▁baronet
▁disputes
production
atha
isha
▁belongs
ayette
ensen
▁jets
rov
▁memphis
▁acclaim
▁lynch
▁addresses
▁hostile
cod
▁ignored
▁knee
pack
ref
ár
▁murders
▁calgary
▁redevelop
▁salary
▁malcolm
brother
▁corners
')
▁informal
osystem
▁primitive
fiction
▁cleared
berger
ycl
▁amid
▁managers
marks
▁achievements
▁marion
▁strategies
▁proto
▁pag
▁favourite
▁gott
▁dense
▁shaft
▁astronomical
handed
▁hearts
▁geological
▁tender
▁princes
▁ia
▁plantation
▁dop
▁competitors
▁dealt
▁wise
▁irr
iott
▁melody
▁nickel
▁auditor
▁ré
undy
▁questioned
thal
▁rises
▁annexed
▁clou
▁combining
▁servant
▁openly
▁fountain
▁incidents
prising
▁metric
▁girlfriend
▁guatem
▁hazard
__
▁diagnosis
dun
▁0),
▁rent
▁mcdonald
▁chad
▁workshop
▁olive
▁yak
▁paramount
▁pleasure
▁richards
▁unfortunately
▁divide
▁notation
▁endangered
america
▁saving
ochem
▁angles
▁savage
▁economist
▁cree
▁static
▁institutional
rab
▁versa
▁limestone
▁reass
lat
▁0'
▁troy
▁exhibited
▁hemisp
▁excessive
▁antio
▁tunis
▁practition
▁dign
▁seating
▁portsmouth
print
rels
▁adds
osc
wen
iform
▁bosnia
▁sympath
▁detected
▁solve
▁assumption
▁overcome
▁000%
▁acids
vik
▁submarines
▁amy
cliffe
▁activists
▁hale
▁electrom
▁linking
monton
▁keen
▁impressive
▁blu
▁dressed
▁nak
▁genesis
mega
▁oriental
▁explored
ettes
▁julia
bis
▁nucleus
▁performs
▁sd
▁bounded
ymes
clusive
▁toyota
▁compromise
▁abbreviated
▁ves
▁illeg
▁cres
”,
▁hosting
▁loyalty
▁lacked
▁knowing
▁tir
▁undertaken
▁assists
▁manages
leum
nels
ienne
secret
▁lé
▁buddha
▁anywhere
▁enlisted
▁vicinity
▁whites
▁oscill
▁neighborhoods
▁rape
▁coaching
▁ultra
▁pepper
▁conventions
▁lucy
▁germanic
▁prelim
▁adrian
▁*0000–0000
▁schum
rows
▁sophistic
▁prophe
▁wishes
▁contents
▁epid
shan
$000
prince
▁congo
▁controller
▁cheap
ilibrium
▁nigeria
▁mere
▁boxes
▁descended
▁indonesian
▁extraordinary
oya
▁devot
▁lancashire
▁emil
director
▁lynn
▁triumph
▁bordered
2.
drop
▁trunk
broad
▁anx
▁hi
lore
▁surrendered
▁ley
▁align
▁collecting
ifax
sover
▁jak
▁supervis
▁eliminate
ados
erie
▁relax
▁incarn
▁advances
▁tributary
cry
upiter
▁possessed
▁ober
▁rely
▁minis
comes
▁hampton
▁mits
▁disgu
kill
▁chocolate
aceae
hm
▁nervous
▁synchron
▁dayton
zyme
▁preston
▁iz
news
radio
▁ladies
thood
marine
wyn
▁chassis
▁logical
ordination
▁maker
▁kö
▁maple
▁rhe
iffer
▁attractive
▁shells
▁perf
▁dorothy
▁(0):
▁ved
inders
▁lyric
▁rolls
▁adm
▁hitch
▁wavelength
▁oval
▁ceremonial
▁arche
generation
emer
▁organs
kl
▁rehe
▁emir
ete
mans
▁marin
wo
▁amalgam
show
▁prevention
zhou
▁nie
▁chelsea
▁pavilion
▁gul
▁diary
▁corporations
▁supposedly
▁reactor
▁rochester
▁provisional
▁facto
controlled
▁mccar
▁embra
▁worse
imen
▁wisdom
▁leopold
▁frames
▁(00%
▁crews
▁hawaiian
▁phenomena
▁autonomy
▁circa
▁machinery
das
▁compatible
▁auckland
▁seasonal
wait
often
▁loaded
▁ferrari
▁contempor
▁holocaust
ullah
except
▁exempt
gener
▁headquartered
took
▁coch
▁vatican
▁gdp
▁mare
▁tran
▁attributes
▁azerbai
▁dispos
▁cork
▁isab
▁evol
▁naples
bard
▁quarterback
jean
▁dion
hig
▁avoided
▁crawford
▁dé
▁runners
▁maiden
▁schemes
▁convoy
▁wash
▁sustainable
▁shoes
▁intens
▁pregnancy
hawk
▁frankfurt
chicago
▁gameplay
uku
▁devon
▁lak
gerald
▁heinrich
▁microsc
actor
▁griffith
▁outlaw
▁paulo
▁subordin
atial
full
▁doctorate
▁chord
berto
atlantic
,”
▁baroque
▁quin
▁accent
▁innocent
dt
▁albania
▁belarus
▁santiago
▁presenter
historic
▁lennon
mitt
==
heed
▁dash
uta
▁(000)
▁armored
▁interval
▁carnegie
cm
uity
icult
izers
....
▁jewel
arre
▁reid
▁trem
▁momentum
▁commodore
clude
▁applying
▁chore
illance
brown
▁archer
▁acute
▁ulster
▁upcoming
hydro
▁mick
▁kenya
current
▁falk
▁precipitation
▁persuaded
▁struggled
stant
▁ernst
▁mour
▁airing
▁symbolic
,000.
▁notorious
▁planted
team
etermin
colon
än
▁happens
▁jub
japanese
pow
▁qur
oise
wish
▁steady
▁depicts
▁generic
▁upset
▁phant
▁conquer
▁speaks
▁surgeon
▁reflects
▁delegation
▁knox
▁scr
▁proportional
▁draws
▁thomson
▁nm
fig
▁fug
▁wan
birds
neapolis
▁masses
▁stafford
plate
▁disappoint
(0)
▁enrollment
ingo
▁incl
kon
▁embarked
idian
summer
early
▁bord
▁thoughts
▁celebrations
▁00'
lected
▁substantially
▁sard
ritz
icester
▁legitimate
▁generating
▁rode
colle
▁aston
▁consul
▁vampire
grow
▁maxwell
▁barnes
▁crist
▁categor
istically
anger
▁nepal
▁achieving
▁compass
utical
▁fernando
ilo
ifiers
▁brock
▁calvin
▁gaul
▁prominence
iya
▁highlands
▁ethiopia
▁brigadier
▁reconcil
▁facilitate
tu
▁billboard
▁sued
estock
▁winston
▁emble
▁multipl
▁steering
▁instant
▁diagnosed
nc
▁kane
▁enthusi
▁polymer
▁modifications
▁scales
▁orlando
▁unanim
▁sper
▁0000);
▁belfast
▁freely
▁airports
▁embedded
ribe
▁reduces
▁protecting
▁warrant
lé
▁angry
▁leis
recht
▁preliminary
▁geoffrey
▁apartments
▁vault
▁locals
▁flee
▁motorcycle
▁dund
▁governance
▁volleyball
▁lighthouse
▁lease
abulary
lif
▁porn
cole
▁elephant
▁00–00,
esia
▁moder
▁wished
▁falcon
▁orbital
▁posit
▁thurs
arity
▁whis
▁herman
rolet
▁rican
▁cb
▁daytime
▁emissions
▁testimony
sign
▁ink
plant
pay
▁rectang
corn
young
fat
▁wyn
▁insert
▁combine
hman
trad
icking
▁nass
iu
▁treasure
▁portable
▁squadrons
▁assignment
ango
▁paradise
▁pyth
▁retre
▁beet
small
▁knife
▁determining
▁isot
▁pleasant
▁proceeds
▁cement
▁profits
▁clare
▁fiscal
▁suffix
▁replied
inners
nals
▁busy
▁aires
louis
iaz
▁europeans
landers
▁eros
ersion
▁atlas
▁differs
prom
▁amazon
▁rookie
▁**#
▁ecu
▁dul
▁eaten
▁tragedy
▁critically
▁chronicles
▁destinations
bage
▁grows
▁commod
▁qualities
oche
▁madonna
▁copenhagen
▁lyon
▁derivative
▁diana
▁wednes
▁jaw
rible
voy
▁defeats
▁cao
▁composite
onde
▁ease
▁meter
▁upgrade
▁revision
▁cricketer
▁mobil
▁dances
▁accidentally
▁bigger
▁prophet
▁discipl
▁precurs
entric
sin
prim
breaking
▁elliott
▁nitrogen
▁humph
▁touc
activ
artment
▁licence
▁ideology
▁das
▁jointly
▁beau
▁oblast
advant
▁sponsor
▁disabled
▁desper
▁hemisphere
atz
▁marian
▁advantages
▁peaks
▁cage
-000,
ulator
▁spear
▁dissolution
ainted
▁whenever
▁collision
rition
major
▁unveiled
▁sailors
sr
especially
actions
ynamic
▁loans
▁seemingly
rail
▁carlo
▁dioxide
▁mā
alid
abwe
priv
▁visitor
▁armenia
ija
▁inspector
indian
▁certification
▁qualification
▁hered
▁bless
▁norse
▁thy
▁conferences
ophy
▁cyn
▁fights
store
▁marker
▁calcium
▁parach
▁stamps
▁inherent
▁petroleum
▁substances
gt
▁abdul
▁caroline
▁saga
call
▁peripher
▁brows
▁justin
▁syrian
luc
ods
▁traces
rators
▁enacted
▁abortion
▁ö
nis
▁radius
▁summon
oki
0''
▁sectors
▁purely
closure
▁surveillance
bee
storm
▁lent
▁charleston
▁claus
▁zhang
▁astronomer
▁blocked
▁siber
▁homeland
▁0000/0000
anor
▁kre
▁responses
rays
▁tickets
▁ecclesiast
▁tampa
▁disappear
▁recount
lass
▁paths
▁skilled
▁expend
▁verses
alon
▁sanskrit
▁aristot
yu
upe
▁dramatically
▁crimin
sac
frame
▁luxembourg
▁chromos
▁bum
▁creature
▁readily
▁risks
▁defining
▁investigated
bek
▁everyday
▁precision
▁biographer
▁lots
▁magical
gic
▁boxer
shi
alism
double
section
▁summar
▁scouts
▁traced
▁equity
▁explosive
▁speculation
▁commissioners
ounters
wil
▁appar
▁cease
▁convey
ipeg
ortal
▁careers
▁maternal
▁algorithms
eav
aid
ablo
▁artic
▁caliph
amy
▁chips
▁moist
▁fruits
imination
ailing
gren
ometown
▁statute
arag
▁chemicals
▁wartime
orted
ospace
▁forbidden
▁motorway
▁improv
▁nin
▁mell
▁rope
▁martha
▁limitations
▁elderly
▁metabol
▁peaceful
▁miniseries
urai
bag
▁shi
▁warn
▁irving
▁sends
▁fuller
▁continuity
.;
dog
pu
▁tyler
agara
▁prose
▁edmonton
▁silence
▁illustration
▁semin
▁ae
▁hog
iously
▁subspecies
▁midland
▁voluntary
fant
▁soy
▁tide
▁livestock
eroy
▁contacts
zon
ylum
ostic
▁ecosystem
▁disrupt
flight
▁ora
▁ambig
▁finest
▁finale
▁portfol
▁hurt
omatic
lp
▁reunion
anas
▁deceased
due
▁effectiveness
▁communicate
▁feminist
▁casting
▁barracks
amas
gage
phys
throw
▁merced
▁enabling
tun
▁presenting
▁(0:00
▁felix
▁hiv
▁conrad
placement
▁countryside
▁proud
▁jungle
▁pottery
▁accompanying
▁graduates
inding
oken
▁terrorism
▁reversed
inned
izable
▁crowned
daughter
▁objectives
▁zimb
▁valleys
▁cardiff
▁bottle
▁servants
alous
▁insign
▁imaging
▁ank
▁cure
▁digest
▁missionaries
elyn
▁johns
▁kenny
▁courthouse
▁anders
▁feared
▁similarities
ppen
▁00%,
▁provider
▁flint
shine
▁xv
▁refere
▁cooperative
▁examined
▁tended
▁alpine
▁affiliation
▁isolation
aceutical
▁commuter
▁retiring
▁joel
▁tribune
▁melod
▁equilibrium
kit
moon
asted
▁hierarchy
▁slavic
▁incorporate
owner
onaut
▁listing
aved
wolf
▁routine
iman
than
▁clo
▁entries
▁cartoons
▁jesse
▁molecule
tee
▁cornell
haul
ocaly
▁strongest
▁manch
dia
▁unofficial
▁gamma
agar
▁bike
▁publicity
ithm
▁wax
ogene
▁respected
▁guidelines
eling
▁virtue
▁jennifer
▁halifax
▁specially
spir
stable
▁conform
▁collo
▁(00.00
ipel
▁journals
mented
zens
▁willie
▁brighton
▁encounters
▁superintend
issued
▁semic
▁fitness
artney
▁mistaken
▁miners
▁correction
▁excluded
▁mandate
▁torture
▁reinforced
iste
erner
ethyl
▁kerry
▁nice
▁misc
▁gifts
0000,
▁tensions
▁injection
▁pere
▁node
bn
▁tough
▁genera
▁marathon
▁suggestion
▁hometown
▁sinclair
▁overwhelming
neill
ishna
▁russians
lis
▁coupled
▁integrity
▁disadvant
▁destroyers
hat
▁betty
emia
▁floyd
▁intact
▁jupiter
▁cay
▁trapped
▁carefully
▁reun
▁ellen
captain
▁buckingham
▁dee
▁prosecution
▁shapes
0+
▁narrator
▁sometime
▁zion
irable
league
▁complaints
▁emma
▁preference
▁pagan
▁bras
▁suppress
▁bark
▁slide
▁marginal
▁nc
▁enlight
▁buenos
▁mascot
▁dragons
▁employers
olan
▁cameo
▁cycles
▁helicopters
▁betray
▁griffin
▁receptor
fel
▁straw
canada
▁weakness
▁vick
▁wards
▁endorsed
▁illustrations
▁container
aeus
inis
▁ancestor
▁employer
grass
▁shortened
▁minneapolis
▁regulatory
tech
▁lacking
rang
▁slope
▁totally
▁promotional
tles
▁aided
issues
▁caves
▁activated
▁contracted
▁beside
pace
fair
▁wives
ilitation
▁riots
▁semif
enty
▁clip
▁violation
▁ahmad
▁adequate
▁renovation
ifa
keys
▁natives
▁interviewed
▁spelled
▁mps
ographed
holder
▁seeks
▁hanging
▁$00.0
▁chevrolet
▁prevalent
joseph
lib
▁chant
around
▁designers
▁superhero
▁stur
▁slopes
orrow
▁assy
▁synthetic
squ
▁crane
▁premium
▁leicester
▁jas
letter
iens
▁lah
itivity
▁vag
▁definitions
▁nurse
▁appreci
▁sunk
▁consumed
▁motif
▁unreleased
amen
▁bride
aternal
▁sentences
▁vegetables
▁cf
▁lumber
iane
▁favored
▁aunt
▁yar
▁ira
bons
ondo
▁dishes
▁rescued
▁altogether
▁concentrations
eves
▁georges
▁0-0-0
▁hermann
▁uniforms
▁bri
largest
elage
▁dudley
▁ferguson
▁fraternity
▁0;
hara
ogenic
▁jeremy
isy
alam
▁flexible
▁ribbon
canadian
specific
▁specimens
▁wik
prime
▁mumb
public
armed
▁embry
▁timing
lab
▁nes
▁venus
▁extant
▁floors
hole
oder
vill
▁aerospace
lady
▁tooth
ouch
▁trom
▁segreg
▁ballots
▁middles
▁leisure
▁reprinted
▁accordingly
▁erie
▁.00
awi
▁reflection
▁broadcaster
▁vaugh
▁shr
itory
▁espn
▁gardner
▁0).
yson
▁flowing
▁nominee
▁tracking
▁catalogue
▁tribun
▁coordinates
▁technically
▁parishes
▁verte
▁corresponds
▁ya
jul
commit
▁cyber
▁sigma
▁buying
▁deliberately
▁systematic
immer
▁laud
intosh
▁correctly
▁fairy
▁emotion
zan
▁bail
▁dwarf
standard
uga
▁witnessed
▁rena
▁immune
▁saxophone
▁urged
▁roller
▁throwing
▁archaeology
golden
▁fails
donnell
▁urugu
▁mandatory
▁flute
▁rockets
▁bias
▁circuits
▁minerals
▁redesign
▁cedar
▁heated
▁gateway
▁peerage
▁phi
▁monsters
▁reasonable
otive
▁syndicated
▁pronunciation
ledon
▁synag
▁learns
▁wyoming
eer
▁tsar
▁combust
▁secretly
▁occupy
▁decisive
▁honda
▁discharge
▁unre
▁turks
afe
▁switching
▁filipino
▁pose
▁horns
▁burma
▁watts
civ
iae
▁overhead
volume
▁breakfast
wat
being
▁pradesh
▁carson
▁heavier
▁approaching
▁dispat
▁helm
▁ions
▁spotted
itational
▁karen
erun
▁(0000–0000,
▁guang
▁phases
▁resemble
▁gluc
▁christie
peg
▁railroads
▁strips
▁taxi
▁coral
▁apolog
▁lawyers
▁pyramid
▁surprising
▁loosely
▁timothy
▁laps
▁vale
▁securities
▁cycling
▁brewery
ellan
▁shipped
▁dropping
▁wizard
..."
▁regen
▁feedback
▁calder
▁abundant
hans
▁enlarged
▁explaining
▁yosh
▁stair
manuel
▁rachel
soon
▁vacc
▁chapman
▁preceded
▁beaver
▁midway
▁topped
▁traders
▁educator
▁sufficiently
▁sham
▁winnipeg
▁providers
▁thumb
▁commentator
zero
▁rhet
▁descriptions
▁streak
▁fi
natural
aris
midt
elles
▁shepherd
▁ave
eros
science
▁zimbabwe
▁pastor
▁dodge
▁escal
occupied
▁rehears
▁granite
▁greene
▁zur
ulin
▁sidney
jes
alis
▁fry
▁iber
▁nh
▁rack
▁stark
▁renovated
▁garage
washington
▁casc
▁birthplace
▁confident
▁underwater
▁pneum
▁cellular
inks
▁volcano
▁nab
▁teenage
▁inferior
▁tunnels
true
▁projected
▁acceptable
▁cis
▁dv
▁borrowed
▁listening
▁infra
▁conception
▁lago
▁ranger
▁dining
▁notre
▁randy
▁knocked
▁revenues
sein
▁rosa
▁illumin
▁fathers
▁elimination
onne
▁guad
heimer
ascular
▁ecuador
▁accomplish
cond
course
dish
uins
columb
racted
▁normandy
▁webb
empl
▁$0.00
▁whereby
▁grandmother
▁screw
fur
allow
▁rankings
▁choosing
▁scenic
▁identifying
mines
▁regulated
▁spee
bye
▁hs
)'',
▁niss
▁directing
▁beef
▁searching
▁jackie
▁klein
▁custody
▁walsh
blo
oop
bass
▁yes
▁obtaining
!'',
▁accommodation
ifi
rosc
▁julie
stat
ophon
▁gob
▁nikol
▁traits
▁stepped
igi
▁whip
▁anonymous
fle
histor
▁vowels
▁conting
ès
▁rigid
▁observers
▁holidays
▁tenor
▁directory
elius
▁update
▁smoking
jev
▁requests
gone
▁wage
▁refurb
▁favorable
prov
▁supervision
▁ez
▁pard
▁phd
▁laur
riction
continental
▁communists
▁niel
▁pharmaceutical
▁0:0
bris
elihood
▁stance
▁whitney
▁bradford
▁invas
▁contra
▁expenses
▁czechoslovakia
▁blan
"—
▁walks
▁sophisticated
▁motto
▁rainbow
odied
cisely
▁roland
▁supermarket
▁kaw
esa
access
▁feels
▁dairy
▁recommendations
▁pitt
▁lotus
▁enzyme
▁strain
▁investments
▁teammate
▁alignment
▁brilliant
▁kens
▁tallest
originally
▁yuk
▁cbc
▁ethical
▁dwell
▁viking
▁deity
▁cruel
batman
▁warned
▁backup
▁literacy
▁shen
elfth
▁gaelic
▁protective
▁unt
▁lengthy
▁fond
▁theft
▁latt
▁drift
▁allocated
▁constitute
▁immigrant
**
▁mlb
▁antioch
▁breakdown
▁ahmed
▁scrap
▁organize
▁howe
▁unrest
▁scholarly
pus
rina
▁mercy
▁magist
▁pension
▁liked
album
▁submit
rised
atural
▁transf
▁defunct
anner
▁lifted
▁labeled
▁soviets
▁predators
▁proc
▁clouds
▁insufficient
rokee
oids
▁aspir
▁rabbit
oved
▁intim
utsche
▁puppet
▁bis
tail
acter
▁gases
▁vernon
▁broader
▁eject
ometric
▁mint
▁automotive
▁0.0-
fra
▁resembles
▁nationalism
▁meyer
▁promising
▁flora
▁locks
▁asteroid
bh
▁anto
▁challenging
▁bess
▁cunning
▁logan
▁morton
▁retaining
▁lawn
▁keeps
▁vacant
▁aberde
▁faithful
▁hydraul
▁buch
▁rendering
▁pitched
-0000,
▁hastings
▁inscriptions
▁jeffrey
▁uranium
▁choices
▁marina
▁walked
▁stopping
onal
▁inaugurated
▁0×
▁cors
▁cairo
linder
▁habsburg
▁mistake
▁cartridge
▁exhibitions
ller
▁macedonia
▁brent
▁overt
▁mccarthy
▁demanding
esses
▁dramat
▁hellen
aval
eight
▁invitation
▁ci
▁wwf
boats
▁asserted
amba
▁janet
▁spare
gia
▁healthcare
chy
idi
stral
▁0-00
▁collectively
rc
▁filling
▁surge
▁bells
▁sne
▁freeman
▁expectations
▁lesbian
andro
▁passive
ém
chap
hind
uana
map
▁gle
▁weakened
▁abel
▁hanover
▁ecclesiastical
tok
▁utilized
rimin
hardt
▁albanian
▁reviewed
▁ecological
▁α
alus
▁duff
▁wei
auf
▁sociology
▁cone
▁develops
▁executives
▁woodland
sym
▁fart
▁für
▁unesco
▁symmetry
imar
▁funk
▁yearly
▁healing
▁mum
ogl
▁projection
cler
▁coordinate
▁dozens
▁nascar
▁consultant
▁conviction
harmonic
▁rotating
▁sleeping
▁bip
▁lia
▁unix
▁advancing
▁satellites
ibus
eville
▁bombardment
▁mé
anal
▁stun
▁retros
▁comprised
▁precisely
conc
▁colonists
▁tibetan
▁statues
scott
▁kend
▁hoping
▁commemorate
inqu
rically
▁pretty
represent
▁carpenter
▁siblings
▁unsuccessfully
▁advocates
▁pour
▁forecast
▁noticed
▁presumably
▁incorporating
▁transc
▁refuses
cit
▁omn
▁gymn
▁derek
iker
▁comparative
▁maid
inv
republ
▁barber
▁pierce
rified
ipzig
shaw
eon
ogram
▁afterward
▁cumberland
▁negro
▁raiders
cestershire
guitar
▁hank
▁flame
▁swamp
rea
▁lug
▁hare
▁pressed
▁negotiated
kett
▁raz
▁leth
▁rays
letcher
▁oss
▁mumbai
▁mund
▁traff
▁dental
▁superintendent
$0
mach
cylinder
▁rounded
▁depr
▁dancers
▁archipel
anca
▁abandon
▁observe
▁warwick
▁ai
▁sebastian
▁infected
▁vass
bath
▁descendant
▁leased
▁gandhi
▁verbs
▁portraits
▁nicol
▁cn
iza
uni
comed
▁folklore
▁boris
▁puts
▁rouge
▁(#
▁wig
amon
▁vall
▁invested
avi
▁fingers
heng
▁resolve
▁mortality
▁chemist
▁endeav
▁campuses
▁naked
▁gan
▁drainage
ño
▁shirt
▁uncons
▁tonight
irish
▁thursday
▁defenders
lance
width
wear
▁ashes
isible
flower
▁loves
▁0000–0000:
cool
▁zool
▁theaters
▁humanities
▁acet
▁accepting
saxon
▁joyce
▁fon
ibald
▁modeling
metal
garten
keeping
▁biz
▁laboratories
▁adjo
▁cottage
yen
▁ges
▁watched
▁mao
▁repeat
▁guarantee
▁recycl
▁meal
linary
▁canceled
itas
▁spont
▁physicians
▁prohibition
▁decoration
cab
astics
▁trumpet
▁basilica
area
▁000).
▁remnants
▁franc
▁thresh
▁chamberlain
▁posthumously
▁stain
▁sting
▁mothers
▁capturing
▁celest
▁lateral
▁intake
▁prolong
▁tud
ør
▁arise
▁exports
▁hammond
▁paradox
▁accredited
comb
▁swept
▁enz
ratic
▁voiv
arth
▁dell
▁asym
▁scripts
gall
▁portal
▁penguin
▁(0.0%
▁tucker
;"
inae
▁hiro
russian
▁eb
iffs
▁rpm
uine
▁blamed
▁screening
ucci
▁handful
▁dag
,'
combe
▁wednesday
adia
▁).
▁ambit
▁outlets
▁placement
▁transaction
pierre
▁genoc
▁fertil
fund
psons
▁harp
▁emergence
▁organizing
▁winchester
▁helmet
▁inheritance
▁alternatively
▁rca
▁sikh
quar
▁raven
pez
▁kazakh
▁relegated
pection
▁combinations
▁confined
▁launching
▁expressions
:0000
▁inequ
▁#''
▁eden
▁inserted
epis
sink
▁panc
wed
▁cic
notes
▁analys
▁clinic
▁muscles
▁britt
etian
working
▁pistol
flag
women
▁integer
▁sq
▁rex
sty
▁asp
played
▁stam
▁hate
▁decommissioned
cath
cost
▁remake
recorded
▁statesman
▁saxony
solete
▁audition
▁macmillan
▁socialism
chez
▁saxon
cad
▁fow
▁dynam
enhower
▁affects
▁incons
▁modification
▁lantern
▁vista
▁sketches
▁nobles
▁coleman
▁aluminium
liner
cf
acer
▁percy
▁mccartney
▁mormon
▁panzer
▁peg
▁translator
daily
dragon
▁shores
▁châ
▁dominance
tte
▁enclosed
▁relied
▁remarked
jay
rough
▁affecting
▁hyde
▁wolver
raf
aney
anus
itate
▁nazis
▁swords
▁matching
▁treaties
mix
encia
▁sings
▁shark
▁castro
integr
▁terrace
▁mapping
▁interfer
▁tues
imeter
▁prominently
azar
▁peasants
▁verd
▁grape
▁extensions
▁memoirs
vine
▁popul
▁souls
▁firearms
▁rapids
▁kod
▁monten
▁marched
▁trinidad
atisf
▁shear
elin
▁carnival
▁forgotten
▁grim
▁algebraic
▁consortium
france
▁dover
▁sheridan
▁paragu
▁erosion
▁squares
▁barack
▁rapper
▁cob
▁ambul
▁crust
▁ingredients
▁webster
▁toys
▁mobility
▁hiding
▁sacramento
▁emily
▁seals
▁stereo
▁mgm
▁rudolf
▁depiction
married
▁ceiling
itting
▁pulse
eit
princ
loaded
▁wages
▁emphasized
▁gum
▁aerod
▁peers
osaurus
▁breakthrough
▁nicarag
▁offspring
▁reopened
▁magnus
▁continuation
mis
voc
▁ō
▁minds
▁staying
▁vid
▁oxide
▁formations
▁inspection
▁privileges
kr
▁000),
▁textile
bourg
andra
▁sediment
▁constituted
▁savings
▁maneuver
▁uncommon
amoto
computer
▁pied
coun
▁correspondent
▁slower
uras
▁pakistani
▁rag
omorphic
▁guatemala
▁hereditary
▁prosperity
ono
▁clara
▁fores
osphere
▁agrees
▁premises
kim
▁cubs
▁ghana
▁genius
▁fitzgerald
▁asset
▁constituent
▁cpu
dos
nominated
▁lans
bold
▁safely
▁colloqu
▁complications
▁mentor
▁salvation
▁deeper
▁pto
▁sunset
aircraft
osity
▁summary
▁flanders
▁cultivated
▁transactions
▁tah
▁pasc
▁researcher
trak
▁monkey
qa
▁phantom
▁fris
▁flies
▁tuber
▁assuming
▁skate
atro
▁hak
▁factions
▁speeches
▁sto
▁archipelago
pike
▁emission
▁complained
▁toil
▁sedan
▁lithuanian
▁bard
▁skept
▁domains
antes
nasium
▁jamie
▁myself
asse
▁chor
▁pamph
▁volks
▁hm
▁fleming
▁damages
▁deputies
▁admit
▁edit
iances
▁couldn
▁ordained
▁typh
.'',
▁(0000-
▁humanitarian
▁alk
▁gore
ikhail
▁declaring
uke
▁passages
▁speedway
▁extinction
▁moh
▁schne
imbledon
fox
neath
▁malt
uria
▁boyd
▁receptors
ulent
▁trench
▁oversee
isbury
▁folded
▁declining
▁revelation
▁terrestrial
▁tric
▁compuls
▁ecc
▁mickey
wrote
rape
▁bree
▁roster
▁sharon
▁aragon
▁mü
lift
▁bean
▁crystall
ál
etz
utely
▁isles
prised
▁governmental
graph
▁cove
▁screens
▁subscript
iston
▁incred
▁intervals
▁spike
▁appealed
▁generator
jiang
▁hawks
▁exceptional
▁mercedes
today
▁brake
▁sealed
▁commercials
▁barr
onductor
▁inev
patrick
▁azerbaijan
▁stip
▁sentiment
▁eisenhower
ieri
iche
▁loch
▁curves
▁amino
▁multim
user
▁parsons
▁interrupted
▁reformation
pad
▁(0),
▁regained
▁documentation
iso
▁bolt
▁slovak
ipse
▁bergen
▁travers
tank
▁skip
▁cherokee
▁quarterly
▁ek
auss
▁agenda
▁sutton
jam
▁cello
lew
▁hij
clock
▁laf
▁athe
▁whales
asp
adequ
▁;0000
rite
leading
▁plague
▁lore
between
▁motivated
mult
▁harass
▁nodes
▁silicon
▁initiatives
near
▁yemen
▁māori
▁chartered
▁portfolio
▁rental
block
▁stab
▁hunters
▁ambitious
stri
▁arbitrary
▁joshua
▁algeria
▁estonia
arf
▁gag
▁waterloo
▁slogan
eme
▁instructor
words
▁realistic
▁electromagnetic
▁lum
mounted
▁aluminum
▁sterling
ymour
▁rides
china
▁pé
▁valued
▁einstein
▁lisbon
▁orchestr
alone
▁reliability
tym
▁koch
phones
▁basement
▁null
▁bé
▁frog
▁lance
▁induction
▁thur
▁*:
▁lunch
▁vie
▁pointing
▁pike
ancock
▁suprem
▁0.0,
▁sega
▁cultivation
▁vols
▁borne
▁drake
lections
▁trent
▁trainer
▁theologian
▁piz
ulative
▁profound
▁ich
▁bacter
▁auditorium
▁(0,
▁inflamm
▁habitats
▁treasurer
addy
▁kant
raltar
▁tracy
▁discussing
▁newark
▁maya
▁deton
▁exposition
stick
▁treatments
▁pbs
annah
▁marcel
ène
cerpt
▁seab
▁awa
▁salem
▁locked
sed
▁adhe
▁beds
▁grip
kat
▁oslo
▁tunes
▁retains
▁watershed
ploys
▁suited
▁websites
▁kinder
▁underway
▁wholly
▁eternal
▁isn
chin
many
mentioned
▁licensing
▁twelfth
kok
▁providence
▁convenient
▁yah
northern
▁tears
cio
▁privacy
▁ou
ithe
▁convince
▁dive
▁unconscious
▁rc
▁skating
alla
crit
rank
atri
▁solic
▁00,000,
▁demolition
witz
▁jerome
▁relates
▁alder
another
emi
tec
ophil
▁barely
▁gav
dh
bright
▁pearson
▁hardcore
▁ensuing
▁marriages
▁rehabilitation
▁dominion
▁accurately
▁albeit
▁della
bore
▁peel
without
▁publishes
▁wimbledon
▁jing
▁hern
▁shrew
apest
▁offshore
▁aristotle
▁adul
▁countess
▁cambodia
▁induced
▁encry
▁alto
▁pioneers
▁burst
▁stomach
▁simulation
dl
▁axi
▁charitable
▁mush
▁fortified
▁clusters
▁marquess
▁sculptures
▁elis
▁schwar
▁glacier
▁surprised
milit
ulse
▁fletcher
▁automated
opus
▁pact
▁bluff
▁petty
▁chrysler
▁shim
▁implied
▁bloc
▁enables
▁pharmac
▁welcome
hops
profess
▁jesuit
▁selective
▁jurisdictions
▁nj
''—
▁db
enstein
▁kai
▁fring
▁nominal
▁donations
▁counterparts
▁portrayal
▁successes
▁nim
▁pes
▁zam
▁dhar
áil
pend
▁hutch
▁orphan
▁pirate
▁natal
▁patents
▁classroom
▁riverside
▁holly
horse
ethoven
writers
▁prolific
▁eugen
exper
▁nutri
▁trends
▁hond
▁stuck
▁unrelated
▁sponsorship
▁tup
▁santo
▁partnerships
▁clyde
▁coronation
ilingual
adh
leen
sound
▁subset
acks
grove
large
▁rover
▁dealer
▁alert
▁spectacular
changed
▁annie
▁manning
▁insight
▁marching
▁minorities
▁philippe
▁purchasing
alach
name
ité
▁asylum
▁frozen
▁guaranteed
▁alps
▁tapes
atum
ells
▁throat
▁pioneering
muda
oire
▁declare
▁surgical
▁orchestral
wr
agas
▁determination
▁dodgers
▁randolph
▁baghd
▁turret
▁mackenzie
▁discount
▁pedestrian
▁abbot
▁accidents
▁rs
▁assim
southern
▁emotions
▁drunk
▁exempl
▁ears
▁oriented
raising
▁oy
▁hew
▁denominations
▁antis
▁apostolic
▁devi
chinese
▁bmw
▁storms
▁compress
▁congest
▁:"
mere
▁louisville
▁hect
▁wand
▁besie
▁legitim
developed
▁essence
uence
▁monica
before
▁loading
▁philosophers
▁welles
elic
▁jagu
▁starr
committee
▁emigrated
▁privy
▁combustion
forth
▁cadet
▁attitudes
▁taxon
▁laureate
▁rituals
▁displacement
prop
▁digits
try
▁servers
▁glam
▁arabs
▁iconic
pei
▁sensor
▁makers
▁reasoning
▁lime
▁prizes
▁jenkins
arta
▁eleanor
▁restruct
▁worcester
2),
▁00000,
▁spatial
▁aberdeen
control
▁envelop
▁drops
▁ecology
harry
▁huss
bt
▁attained
emin
▁metaph
▁aggregate
uler
▁disciplines
▁encouraging
▁reproduction
▁gloucester
▁shirley
▁shog
▁irrigation
▁barang
▁fischer
▁kub
▁antip
▁discrete
quez
▁joke
▁stefan
middle
▁intra
▁intr
▁email
▁loses
owners
▁counting
imper
advent
▁000,000.
▁repet
rella
▁willis
▁riley
▁substr
▁rept
doc
▁vander
▁prints
▁pseudonym
▁stripped
apo
▁flem
▁moth
▁inception
▁stron
offs
▁persecution
▁renault
▁kiev
▁sally
▁amen
▁troubles
rak
▁ethan
▁southampton
▁wounds
▁blessed
▁defender
▁discoura
▁gibraltar
apur
▁narrowly
obic
▁denomination
▁xen
▁pratt
▁adject
▁burden
▁trol
▁peasant
▁aging
▁merge
▁kidney
▁persia
▁privat
▁inadequ
▁scrat
▁breeds
lez
))
▁polo
▁dong
▁turbine
oca
▁cosmic
▁economically
racuse
▁penny
▁stripes
lot
▁ptole
▁timeline
bys
▁fulfill
▁geometric
▁revealing
tracks
▁representations
▁deaf
▁acceler
▁attain
irus
▁avengers
fields
spanish
▁answers
▁avoiding
▁skyl
▁absorption
▁differently
.-
▁rw
brities
▁consonant
lich
▁periodic
rific
▁replica
▁steadily
▁shoe
nem
▁comet
▁remarks
▁referenced
ako
test
▁originating
uling
iatus
▁wears
▁underneath
▁cromwell
▁alley
▁dried
▁imped
▁bloody
▁precursor
▁institutes
▁zhou
leep
▁vor
▁recommendation
▁lone
▁geograph
▁shorts
(0
▁clash
▁caucus
▁harder
connected
▁theatres
▁xbox
▁sympat
▁devised
▁surveys
▁pipes
▁lineage
▁specialty
hof
▁etym
▁balloon
▁crescent
▁coordination
▁dose
▁noon
▁antiquity
▁teamed
▁wander
▁nicolas
▁catholicism
▁kok
▁atari
▁regards
▁interpretations
fax
start
▁operas
▁strengthened
▁mahar
▁rows
▁debates
▁detachment
▁istan
▁botanical
isse
fielder
▁migrated
▁ct
▁modules
outube
ew
▁genocide
▁eleg
ongo
▁afl
hammed
▁jubilee
coe
▁settling
gbt
aphor
▁ammon
▁miniature
omal
▁tart
▁unders
▁nr
▁ding
▁bruno
inia
▁consc
▁benson
▁dix
▁meh
▁beats
raid
▁matric
▁crusade
▁suffolk
▁carth
▁debris
/''
▁trailer
jah
▁#*
elly
▁zip
layer
stitutional
dance
▁pius
▁libya
▁midlands
▁constraints
bles
dioc
▁williamson
▁eva
▁bowie
▁downs
▁undertook
▁threatening
adays
driven
▁buchan
plex
▁engaging
▁addressing
mare
▁wb
▁roses
raz
▁£00,000
▁celebrities
▁juvenile
▁patricia
▁rats
▁geology
▁infrared
▁genuine
▁majesty
▁patriot
rica
▁istanbul
▁gould
▁leigh
00).
rology
▁infections
▁modeled
▁shipyard
▁philharmonic
itism
▁hunger
▁demonstrations
finished
▁instructed
▁shat
hausen
oughton
lli
▁nou
stones
frey
▁rans
▁imagery
▁photographic
▁ballad
service
bring
benz
pole
associ
▁monter
necess
▁fossils
▁outcomes
atile
▁trout
uh
▁xii
▁sheets
▁excerpt
dick
times
ede
▁fertile
▁fuselage
▁subjected
▁preparations
▁*.
▁torque
▁lengths
▁employs
▁threshold
-000)
▁obsolete
▁tire
forward
▁atop
▁kins
▁functioning
▁paved
▁nissan
▁lifelong
▁agu
ronic
▁fears
branded
▁currents
▁rené
▁gorge
▁crystals
vre
▁pt
▁nacional
comm
silver
▁ideals
▁insult
▁seventeen
enment
▁jake
▁nile
▁jumping
▁incent
dorf
sinki
▁soprano
▁pue
▁poker
▁consulting
▁crosby
▁aesthetic
▁negotiate
▁salisbury
▁ruf
▁sauce
▁companions
▁referee
▁0000–0000''
reich
▁incomplete
▁indie
tera
oso
forest
▁flesh
▁bohemia
▁gregor
▁leipzig
▁secrets
▁brotherhood
▁sep
▁bury
assium
▁quinn
▁merchand
tit
▁mikhail
why
▁feathers
eye
▁perce
football
▁wade
▁sinking
▁jed
▁panic
▁fortifications
▁edu
▁lymph
▁shawn
▁reverend
titled
▁francesco
▁herm
▁celebrating
▁workshops
▁exiled
▁highlights
cou
000)
▁filmmaker
▁willow
▁seymour
▁eup
wagen
▁crazy
▁numerical
▁elvis
▁covenant
▁comfortable
▁clarence
▁struggling
▁rash
▁discs
▁simplified
roads
▁tonnes
▁confederacy
▁britann
▁hok
▁denis
▁nationals
▁neighbors
▁uz
champ
kien
▁judic
▁competitor
▁schumacher
▁maría
▁treason
▁eleventh
▁sik
berra
ogo
onson
mington
unda
yellow
▁adverse
▁delays
▁waterfall
▁cope
zegov
▁genome
hrer
▁toul
▁piv
▁careful
▁phillip
▁intensive
▁ó
▁midwest
▁lovers
▁communism
uld
▁scrapped
israel
▁emblem
▁linguistics
▁prost
etus
▁securing
▁butterfly
▁slovakia
▁rna
dream
▁pressures
jos
thirds
▁kyle
▁nost
▁pens
▁concentrate
▁mountainous
icating
▁phrases
▁destiny
▁chandler
▁loun
▁bant
string
opl
tenham
eppe
▁colleague
▁anthropology
▁meadow
▁combines
▁thriller
▁patterson
▁airplane
ennes
connor
▁tense
yards
▁strand
▁trevor
▁townships
rug
paris
▁shak
▁organism
pil
▁moll
▁galleries
odon
▁redist
cass
▁displaced
gur
▁homeless
▁comparing
urgy
▁mald
▁curved
▁pursuing
▁identifies
▁bash
atal
▁clap
▁xiv
erala
▁shadows
cla
baum
▁peterson
▁outs
iol
▁inde
▁weber
▁intersect
▁tuesday
▁jag
▁melan
▁keyn
▁ish
▁simpsons
▁propulsion
bott
saturday
▁yun
▁supernatural
mt
▁inability
▁flames
avail
▁lecturer
▁eras
▁hancock
▁struggles
nh
cery
▁(0000;
▁anticipated
▁argu
▁trades
▁baghdad
▁gambling
▁stevenson
date
amination
▁demise
▁cz
▁offense
owitz
county
▁corpus
flo
▁macle
▁memorable
▁viz
▁cliffs
▁advertisements
▁cheer
akov
▁restra
▁dismant
▁failures
▁canvas
▁cleaning
▁brady
▁terminated
table
▁shiva
▁tomorrow
▁seated
▁steal
▁geneal
▁isabella
▁standardized
otam
erable
oco
▁insignia
▁necessity
pd
▁vint
▁truman
▁printer
▁zu
illion
▁0000–0000),
▁ole
▁fiji
▁tribunal
jord
▁chilean
▁alexandra
▁punch
▁famine
▁guides
▁cassette
▁limiting
pacific
▁(0:00)
▁brigades
▁hydraulic
▁nets
soviet
▁youtube
▁strengthen
▁sensitivity
upon
▁onset
▁lus
▁endemic
''".
buck
tics
▁outlet
▁polytechn
▁highlighted
▁shu
fta
▁eds
▁mugh
▁stakes
fri
▁bhut
▁stiff
hao
aurus
shoot
▁diploma
▁lightweight
▁advers
inness
marie
▁titan
▁colt
▁aquatic
▁freshwater
▁gasoline
▁miy
▁suscept
▁advancement
▁spreading
eded
▁apparatus
cum
▁emi
▁candy
▁syracuse
▁welcomed
▁similarity
▁uruguay
▁buzz
▁kashmir
itone
▁vacation
erville
▁doom
defined
zegovina
▁criminals
▁forget
▁overthrow
▁unusually
still
▁doyle
▁deadly
▁somewhere
▁mice
▁fierce
▁serpent
▁odds
▁subtle
▁nos
▁alfonso
▁hindi
▁occupies
▁preacher
▁sadd
▁contestant
▁sworn
▁brakes
▁monopoly
▁conceptual
onshire
▁solved
▁mistress
▁introduces
▁gunn
▁sage
hang
▁gos
▁decorative
▁exploring
▁professors
sus
▁nightclub
▁paperback
▁savoy
▁emerson
▁balanced
▁rectangular
▁pupil
▁greenwich
embers
▁inert
▁alloy
▁haiti
▁burlington
approxim
▁friction
linear
too
▁kot
▁stems
▁valentine
▁touchdowns
rar
▁contemporaries
▁nt
aston
military
▁overnight
aceous
▁boots
▁spectators
struction
▁assassinated
points
▁veto
▁budapest
▁affection
▁biographical
▁turnpike
ís
▁sexually
▁warships
▁shout
▁resided
▁postp
effective
▁reluctant
▁ned
oxide
▁bred
australian
▁unp
unted
▁vocabulary
▁estonian
▁adviser
▁refusal
▁clearing
▁ensuring
independent
profile
▁lowered
▁imagination
▁incarnation
▁prehistoric
-000.
▁additions
bil
▁augustine
▁seiz
▁laurel
▁costumes
ocar
▁kerr
▁00-00.
▁crowds
▁westward
deep
▁polym
retion
▁happiness
culture
vic
stor
▁watt
sweet
player
▁liner
▁satan
▁therm
nine
▁columnist
▁undergoing
chet
▁beech
▁kosovo
▁sharks
▁matthews
bos
eppel
▁helsinki
▁acceleration
▁kad
▁ald
close
sonian
holic
▁burnt
▁sanction
▁strongh
▁(00),
▁sulfur
▁positioned
estead
▁hire
▁soup
▁baden
▁barker
▁kara
▁pest
▁mozart
eous
hay
▁handic
▁evacuated
▁productive
kö
▁anxiety
▁contamin
▁trop
▁prayers
▁treatise
quality
wife
actory
▁confisc
▁sts
again
▁airbus
▁bureauc
▁tolerance
ères
▁0''.
▁investigating
pid
▁plag
ijuana
▁norwich
economic
▁mound
▁kv
▁dolphins
▁pawn
▁sprint
▁incorporates
staff
iuseppe
▁nowadays
lev
▁sailor
▁drinks
▁collectors
kef
dn
▁ner
▁coy
martin
▁browns
▁taxation
▁hos
▁subdivision
▁rox
▁meanings
▁announcer
ghost
▁spray
▁bould
▁unification
imet
▁sanders
▁survives
mahon
▁bermuda
▁functionality
▁eighteenth
▁lava
lights
▁amended
▁shannon
viol
▁predecessors
▁impr
▁basque
▁processors
ithmetic
▁zomb
▁000–00
isans
▁schu
▁awaken
▁organizational
▁rafael
kam
▁miz
▁numbering
▁luz
▁lenses
herty
▁hash
▁xavier
▁cologne
▁moy
▁lockheed
▁breathing
▁beethoven
sund
▁cw
▁teh
▁krak
▁livery
▁desktop
bab
bull
▁toled
private
▁deposit
▁communion
▁cinemat
▁(+
▁flavor
▁kernel
▁belgrade
acs
▁racism
▁abundance
▁redesigned
▁nico
▁brush
▁poetic
▁interven
▁patriots
▁arlington
expl
▁karn
▁outfit
pra
▁tomatoes
▁parachute
▁practitioners
▁bacon
plat
▁gull
nob
atti
yang
ende
▁socially
▁personalities
otta
▁realize
▁reconstructed
▁ordering
▁arguably
▁ape
▁bolton
▁admiralty
▁subgroup
▁oracle
▁realism
▁byrd
▁roberto
▁suffrage
▁processed
aise
▁anatomy
▁bronx
▁ces
giving
▁abnormal
▁excavations
nian
greek
▁aeronaut
▁wong
jewish
▁magnific
▁mclaren
reciation
▁pastoral
▁potassium
на
▁wein
▁barth
ingen
▁juice
▁acre
▁arabian
leigh
▁domest
▁progressed
heid
▁rend
▁deciding
▁derivatives
crow
emon
▁hera
▁reside
▁enlightenment
▁amus
osaurs
isen
▁ashley
▁kerala
▁neurons
rush
▁pushing
▁sexuality
▁soils
▁cobb
▁sonic
▁mongolia
▁doctoral
▁confluence
nance
▁delegate
▁accusations
rack
▁knot
episode
once
▁manned
bron
▁alternating
▁reinforcements
sq
▁vc
▁spor
▁barton
▁sacked
appropri
plements
▁unaware
▁televised
▁helena
▁monasteries
finite
▁populous
▁permits
▁mutant
▁constituencies
▁rotten
▁synagogue
▁nec
▁instituted
▁berger
derland
living
▁tissues
duke
operative
mone
▁synod
▁amazing
▁financially
bah
▁michelle
▁topology
▁mw
▁disco
▁audi
▁fals
▁penalties
hydr
adding
▁reperto
▁pomer
▁holden
▁overhaul
▁relieved
▁phyl
▁paral
▁tetra
▁cowboys
▁rejection
▁spit
▁hogan
▁danube
▁conject
grav
mars
▁duet
▁sind
▁baptism
▁cruisers
▁dear
▁probe
▁conclus
▁interrog
▁lambert
▁famously
▁treating
▁avi
stated
oce
▁oppose
▁financing
▁parameter
unch
because
▁tasmania
▁halt
ynamics
ariat
▁claire
▁aro
▁gravel
ww
bras
▁amtrak
▁alike
▁dissol
▁schmidt
kirk
▁conve
turned
▁endow
▁lü
latin
▁bates
▁painters
nation
▁specimen
▁reminis
▁commentators
▁camden
▁stup
▁stocks
ribution
hend
▁collier
▁pathway
haven
▁cull
▁phones
▁inventory
▁kry
▁omega
▁offset
▁niagara
▁activation
these
▁tate
▁davidson
iani
igma
ipation
▁clayton
asus
▁kappa
▁coloured
▁terminals
▁deport
▁possessions
▁append
▁listeners
tier
▁levy
arrass
▁marquis
bral
▁cube
▁crude
▁illusion
aye
▁expressing
arel
▁innovations
▁barriers
▁unlimited
utory
▁flux
▁violations
lessly
▁cables
▁marty
joe
▁spiral
ounce
▁relativity
nez
aird
▁analyst
▁extraction
abl
▁garcia
▁hiatus
▁turtle
▁implications
▁marco
▁chil
▁lacks
▁premiership
▁andrea
▁fisheries
▁amphibious
▁adaptations
▁aure
▁forbes
cdp
urd
▁forts
▁gymnasium
▁turnout
▁cups
▁chiefly
political
▁0000-00,
▁contributor
▁specifications
▁castile
utherland
▁prevents
▁sands
pret
▁blades
vae
▁lgbt
▁perkins
▁rite
▁landings
▁fury
▁cubic
▁packaging
▁occupying
orian
▁antarctic
▁uncertainty
teau
▁ump
▁cyclone
▁infamous
▁frag
▁diabet
▁mets
▁coastline
▁casey
▁gradual
▁acquiring
heres
▁dixon
▁newscast
▁"0
▁logistics
umont
▁concludes
▁breach
▁plut
total
oby
poly
ilers
▁lined
▁micha
▁lindsay
becca
▁shire
▁canadians
▁cafe
▁matched
▁gond
▁muk
▁sis
▁doctr
▁refusing
▁punish
▁ht
▁yi
axis
▁rica
▁augusta
▁christine
▁santos
▁chir
distance
clean
▁crossover
▁capitalism
ugs
wara
▁rumors
▁barrett
▁warehouse
▁meditation
▁decreases
eno
▁byr
uating
imi
drive
▁gale
typ
▁toledo
▁arithmetic
▁compulsory
▁wonderful
▁proclamation
dub
▁yields
▁downstream
▁preparatory
entin
▁viable
▁canberra
▁definitive
▁differing
▁dedication
posing
▁forestry
▁(0000–00).
ariant
▁0000):
birth
▁suits
▁frigate
▁zan
▁duel
▁advocacy
pse
▁posed
▁unstable
aldo
your
▁zinc
▁debts
▁cheaper
▁transcription
afa
oxford
▁reporters
▁evacuation
▁gravitational
sf
▁greenland
▁judy
▁angular
▁homosexuality
▁grat
▁sunshine
▁coached
bahn
▁bolivia
▁abrupt
▁spanning
▁employing
fif
▁councillors
asaki
▁jorge
ān
▁averaged
▁overlooking
proof
▁respir
▁torah
▁quarry
▁sponsors
▁fantastic
▁advertisement
oké
▁fritz
rosse
▁spac
adam
▁victorious
▁subtropical
▁hof
▁grouped
boo
▁fibers
▁ji
soul
▁flip
▁mega
▁hartford
flat
▁pork
preced
paid
▁occurrence
sche
▁usd
▁pulitzer
▁humorous
▁bols
▁discoveries
▁expeditions
edo
▁verbal
▁wholes
estown
▁buddy
▁calib
▁unpopular
peace
▁ruby
getown
▁contex
▁survivor
▁wines
▁bryant
▁infilt
▁packet
enza
▁cron
▁dirt
▁histories
wning
▁robust
▁determines
▁boul
▁sew
▁lucky
requ
▁remaster
▁applicable
tales
▁ain
▁socio
amorph
▁byron
▁000:
▁expertise
▁chu
tender
▁fluct
▁facial
agle
▁gong
▁cake
enterprise
dir
▁monaco
▁calculations
▁emerge
▁hin
▁lumin
▁nl
▁contacted
▁terminology
▁gian
▁abbott
bm
▁horace
▁eruption
ogie
▁hick
dow
female
did
▁elm
▁lup
pill
▁hymn
tailed
▁seoul
▁collar
▁scream
▁malaysian
▁erik
▁outline
sens
ilight
▁brewer
▁contexts
▁repertoire
▁incorporation
▁panor
▁tumor
▁prone
▁deposed
▁psal
▁benz
▁protoc
▁janeiro
transl
▁intentions
ecd
watch
▁dupl
▁triv
▁indication
hips
▁lamps
urgical
▁impacts
inski
▁scenario
▁accounted
▁illustrator
▁comeback
sbury
▁fian
▁harb
winter
▁prolonged
beaut
▁constellation
▁fake
▁float
ook
zburg
▁exagger
▁eponymous
▁behavioral
▁delivering
▁pud
▁reds
indust
▁wen
▁valves
▁seaf
opotam
▁centennial
unders
▁focal
▁facebook
▁talented
▁wanting
▁clarinet
frid
▁leak
▁energ
▁aligned
▁0000-00.
▁favoured
▁terrible
▁0,000,
▁cache
▁cunningham
▁chloride
asu
▁ds
cultural
▁garnered
▁presley
offic
▁darker
▁č
ftw
▁exceeded
▁teenager
▁okin
▁damaging
oxy
▁rd
pets
▁taj
ysics
▁reloc
▁resorts
▁paternal
▁simpler
▁slovenia
▁electorate
ibal
jing
▁amn
ivism
igraph
▁cocon
▁discourse
▁homestead
▁sympathetic
otti
▁guru
▁robots
▁profitable
▁computational
▁gros
▁shields
fut
▁sensors
▁inning
▁redevelopment
▁polls
▁compare
▁dominate
▁plantations
▁beans
▁manifold
▁metallic
▁mutations
portra
▁comprise
▁scan
▁farther
▁poul
▁renewal
psych
▁homage
▁surplus
▁guerrilla
cie
source
▁smugg
▁commissions
plain
▁dunn
▁bulld
▁funny
▁omitted
▁stephan
▁babylon
have
noth
ride
▁refuse
pered
▁tatt
▁vish
zone
▁0000—
▁intest
▁radial
▁registry
▁likes
purpose
spirit
▁exotic
▁disposal
▁garc
▁justify
▁derive
▁regain
▁enzymes
▁broadly
ologic
▁liability
▁shrub
▁mohammad
▁outsk
▁maurit
▁sultanate
discip
▁0000'',
▁triggered
tti
utta
inking
▁beverly
▁admired
▁deficit
▁peaking
▁retreated
▁antig
▁uganda
▁wolves
▁zel
▁tanz
▁solving
▁eliminating
▁designing
mike
oping
▁wicket
▁herzegovina
arius
rique
▁structured
bred
cola
starred
▁conjug
eh
prob
▁embarrass
▁osw
▁drill
▁surpassed
baby
▁rall
▁freud
▁pasha
eni
amaz
male
▁mog
arine
▁tidal
yes
▁talents
abi
arton
▁kuwait
▁diamonds
eting
▁showc
otherapy
▁donna
▁catalan
▁laurence
holy
▁councillor
▁productivity
▁flooded
▁feas
▁mats
▁clifford
▁promises
▁chef
▁oc
athe
▁granting
▁packages
▁stub
▁alc
▁nod
▁chatt
▁psychiatric
▁sonata
▁weekday
▁mvp
▁arrows
omans
▁kits
▁bees
▁salon
▁resemblance
jas
▁pioneered
prin
cars
kick
▁hoover
▁captive
▁emperors
▁prestige
▁courty
▁amendments
unit
▁conced
▁twist
▁judged
▁cardiac
▁deities
▁hap
▁00-0
▁plac
▁perfectly
ahi
▁paired
dm
▁allegiance
▁exported
▁ordnance
cham
▁calm
▁skiing
▁builder
▁ads
▁latvia
▁vaughan
▁syllable
▁diabetes
▁realizes
▁everywhere
rapeut
▁apocaly
afi
▁flats
▁latitude
emp
arist
▁eucl
▁coventry
▁barbar
▁reflex
▁biochem
▁discusses
▁succeeding
▁plato
▁ancestral
▁sé
shar
▁afb
▁biod
▁beneficial
▁amp
▁witt
▁yacht
▁jacket
▁contestants
▁eccentric
▁possesses
▁pus
▁subd
▁continually
▁(0000-0000).
▁famed
▁invisible
idy
▁une
▁dana
▁holt
▁vapor
▁braves
▁complexes
oting
▁bulls
▁dwight
▁speculated
▁barg
▁stint
▁sutherland
▁avant
▁dorset
owing
usions
▁confrontation
▁aero
▁commence
▁obligations
▁dres
▁subdivided
vez
▁kob
▁sampling
dong
▁disability
▁pays
▁stressed
croft
▁thickness
▁possibilities
▁strauss
▁temporal
▁unchanged
islav
▁nicaragua
▁sandstone
▁annexation
▁piper
ftwaffe
▁castles
▁dividing
▁planetary
irs
▁cadets
▁lid
▁dawson
▁smash
▁worm
▁neutron
▁armament
▁robb
▁beard
▁rovers
▁shank
▁procession
▁scorp
▁escapes
▁pipeline
▁coss
▁tributaries
▁lattice
▁alma
▁gaza
▁citation
lith
rieve
▁lemon
auth
▁sunny
tham
▁plots
kefeller
▁canals
▁villains
fac
▁shogun
▁incoming
sport
▁announcing
▁syntax
▁rebuilding
uve
civil
▁accepts
▁outskirts
▁voivodes
tford
altern
▁mighty
▁answered
▁sf
▁ivory
▁punct
▁vocational
▁bax
▁wolfgang
▁ech
▁abbas
▁landmarks
▁temperate
▁crem
▁thinks
ovic
▁satirical
▁ener
▁basically
▁resurrection
▁parap
▁celestial
▁odys
▁hiking
▁suppressed
▁jules
▁mckin
rika
▁wip
▁inadequate
diocese
▁nielsen
▁encoding
revolution
▁krishna
▁leap
▁subordinate
okémon
▁accelerated
▁reply
▁spokesman
resist
▁defect
▁trauma
▁radioactive
▁installations
uca
stroke
▁weaver
▁weston
▁saves
▁bourbon
▁resides
▁voter
▁accession
▁confronted
arck
▁goose
▁salam
▁amber
▁nigel
▁metaphor
▁takeover
▁approximate
gust
▁vhs
▁lebanese
▁pulp
▁0000''.
▁popularized
▁satisfy
▁inscribed
edom
▁kop
uvian
▁zap
pired
loss
▁adjusted
▁walton
▁(0.00%)
abc
▁pseudo
bib
▁xiii
▁laying
▁debated
▁cancellation
▁bombay
▁catast
lead
precedented
ogues
▁ceded
▁clown
▁bulletin
▁paraguay
aires
pleas
▁atoll
▁gad
ranking
▁chances
▁progression
▁jacksonville
australia
▁congregations
▁bolshe
▁lal
▁exeter
icultural
egro
ardy
train
▁meadows
▁owl
▁goss
▁dispar
tag
▁footh
▁compliance
▁canoe
▁barrow
▁attachment
▁consonants
flies
leader
▁ratified
chlor
▁mons
herical
▁attach
▁expired
▁monastic
▁desirable
▁offerings
▁vars
▁00.000
▁hinduism
▁cheng
▁authored
▁nk
tiary
▁conway
▁edison
▁rolled
▁andreas
▁mirrors
▁wheeler
▁decreasing
▁pilgrimage
▁paran
single
▁neural
▁cipher
▁branded
▁summoned
enes
commer
▁messenger
▁alternatives
ío
▁mcn
▁mord
▁blend
▁transfers
▁llc
▁tempt
ropy
▁chol
▁dukes
▁surreal
arents
▁mascul
kas
sie
rahim
▁brittany
''(
▁"000
▁larvae
▁physiology
onge
▁cnn
mex
▁hbo
exec
upper
▁supersed
▁resembling
▁synthesizer
otechn
▁guadal
▁feminine
▁defendant
▁linn
▁regulate
operated
▁hain
▁fluor
▁tones
▁khz
▁corinth
▁displaying
▁protocols
▁angola
▁slim
▁accred
▁unnamed
▁titans
▁enforced
▁satisfied
▁philanthropist
until
▁distress
▁joey
▁prejud
necessary
▁individually
▁rhin
▁batted
▁gerard
▁locate
▁lowell
▁validity
▁00.0%.
▁obscure
▁popularly
▁rage
▁bubble
opt
▁lean
▁lily
▁flemish
▁za
▁receivers
0'
yi
▁vectors
▁coil
▁pablo
project
▁delight
▁jessica
daniel
▁feudal
▁mish
▁kyoto
▁critique
paper
▁labs
edward
▁respiratory
▁texture
pectives
▁schwarz
▁0000-00-00
▁garner
▁mcmahon
hampton
numbered
▁xvi
▁00:00,
▁updates
sta
santa
obiles
▁cooked
▁coul
▁macarthur
▁privilege
▁nouns
▁tudor
▁giuseppe
odus
▁fidel
▁bundes
▁captivity
▁rebuild
▁networking
▁addiction
ikes
leaf
ructive
reck
▁tung
merged
princip
▁optimal
▁anarchist
wey
olulu
▁diminished
▁hyd
▁graf
▁behaviors
▁rockefeller
magn
▁oaks
ilated
▁percept
▁relegation
▁curse
▁herod
obia
▁principality
yam
▁decent
▁readings
agus
▁humphrey
▁spectral
▁viewer
▁jealous
▁calculus
acio
grey
▁forens
▁gloria
gae
▁issuing
▁conversely
▁teaches
lio
▁fence
▁vintage
▁constable
return
▁jung
▁caled
▁playground
▁turtles
something
▁katherine
▁practically
▁aliens
▁hedge
▁empower
hc
▁urs
▁dess
▁middlesex
▁fuj
▁menu
▁roma
▁bb
▁lima
▁elisabeth
▁hague
▁jennings
▁attracting
▁developmental
▁arom
nen
▁financed
▁complaint
▁uv
▁crushed
▁campaigned
▁simul
▁woody
▁umbrella
▁reproductive
▁hep
▁refined
.0000)
▁vitamin
▁foul
▁josef
▁shade
▁waterfront
lette
▁seap
▁lagoon
▁dissent
▁jab
▁myers
▁rector
▁wester
▁opted
patible
▁goodman
▁pressing
▁cortex
▁snakes
▁grammat
inely
▁blame
▁crocod
▁harlem
▁shoots
tam
web
▁wherein
▁reissued
zilla
energy
▁puzzle
▁ante
▁examine
viv
moor
▁pemb
ubishi
▁holders
yar
▁observing
▁utc
▁olivier
uncredited
iasm
ctica
ulton
▁seam
▁spinning
▁accompany
▁birch
uxe
ilde
hungarian
▁shipbuilding
▁restriction
▁tsun
▁firmly
▁carlisle
▁coca
▁mutation
▁ambulance
arro
tree
▁lys
▁fuji
▁vikings
▁lope
▁remind
▁ches
▁breton
▁camping
▁patriotic
▁periodical
iliated
prem
▁ses
clop
local
▁chalk
▁incap
inians
release
▁increment
▁patronage
▁als
owe
isson
▁lund
▁ellip
▁proton
▁theres
ogeneous
particular
▁alcoholic
öm
program
▁participant
zier
▁cerv
▁smok
uttgart
▁upstream
oil
ominal
▁lorenzo
quis
cence
ptions
▁promotes
▁correlation
▁collaborative
script
▁wah
▁lill
▁blackburn
▁reminiscent
▁yo
▁reck
italian
▁goalkeeper
hra
lac
▁relies
▁marxist
▁calculation
alle
▁finishes
▁uniqu
▁garcía
▁tuc
viation
▁demons
▁glucose
imon
lower
million
▁interred
▁£000,000
▁kidnapped
tas
▁stretching
▁psyched
gol
chev
steve
▁recognizes
▁characterised
▁alarm
▁costly
nr
▁smithsonian
gé
▁hr
atu
agraph
cats
gm
▁tian
▁adjoining
▁damp
▁unprecedented
cup
▁encompasses
▁greenwood
assic
▁disqual
▁neb
▁rupert
▁vacancy
▁warming
uru
ière
iw
hello
ritic
▁everett
eus
▁mural
▁repaired
▁shifting
▁transparent
▁qué
▁gp
▁austro
▁lionel
▁mathe
▁snap
meaning
▁ethiopian
▁justified
np
▁oste
▁browser
▁amusement
▁dictators
▁constructing
▁majors
▁wak
▁deutsche
▁poisoning
▁proprietary
▁nsw
▁pits
▁marvin
iban
▁playable
terror
previous
punk
▁relate
▁tubercul
▁kb
coach
▁stretches
glob
▁alam
▁osaka
▁suzuki
establish
-0000.
▁rails
▁resting
▁compiler
olson
business
qi
▁divis
▁analogous
mobile
▁haus
▁floods
▁pug
▁halfway
▁oversaw
▁montenegro
heny
▁vicar
▁proposition
▁satire
▁drought
▁*(
admir
▁triangular
pard
▁judiciary
▁dias
▁inequality
albert
▁clair
▁cardi
▁commut
?)
▁limb
▁skeleton
▁peac
▁skelet
ographies
▁inmates
▁inverse
ández
▁sophia
▁seventy
broken
▁successors
▁zar
▁mammal
▁dirty
▁buchanan
anu
▁wcw
▁tolkien
▁arth
▁rented
▁rowing
▁mandarin
mostly
▁confuc
▁kaiser
cart
ysical
▁honest
▁mohammed
▁converting
▁shareholders
brates
▁varsity
▁exchanges
▁mosaic
▁bullets
olation
▁traction
▁sta
▁handbook
▁miche
▁gog
▁hawkins
▁appalach
▁herr
▁antoine
▁blaz
▁allison
▁stirling
▁berkshire
arios
itian
▁blockade
▁switches
sav
▁sioux
▁morality
▁convenience
▁peck
▁erup
▁motivation
buff
chal
▁dew
▁afraid
▁dams
▁donation
▁kazakhstan
▁python
▁amar
▁brandon
tai
▁absorb
▁invalid
▁wrestlers
coat
wana
▁quotes
▁icelandic
++
ulas
▁ronnie
▁rushed
innings
▁please
▁experiencing
roup
▁influx
▁loth
▁exploitation
▁scandinavian
mia
bapt
▁wi
kk
▁payne
▁jacobs
▁zamb
willing
▁halted
▁robbery
▁tant
▁verde
tically
▁reconciliation
▁dit
▁mono
▁translates
▁infants
▁adopting
▁defenses
available
communist
▁angela
▁lacrosse
▁compressed
▁sach
astrous
▁magdal
▁tertiary
nav
▁rue
rants
▁pigs
▁prostit
."''
▁tad
▁burgundy
▁domes
▁spinal
▁empirical
▁interrupt
bund
▁hulk
▁docks
▁weekends
elt
glomer
▁spears
▁reviewer
▁checks
▁schles
▁pulling
▁dispatched
district
▁explosives
▁coefficient
▁commemorative
chich
media
onica
▁devils
▁cockpit
▁dissert
ilyn
jeff
▁exercised
▁gert
▁sain
connect
▁devastated
▁usaf
▁dislik
▁judith
▁tops
office
▁giles
▁tremend
▁nassau
▁detention
accur
onte
▁dac
▁buffer
▁thatcher
encyclop
▁$000,000.
▁persistent
hak
▁maus
▁sque
▁shooter
▁communal
agascar
▁crashes
cula
talk
▁refugee
▁kc
ynthe
▁venetian
▁fertility
▁nue
▁stretched
▁induct
▁harri
▁exclusion
▁wille
▁indicator
▁violet
▁blocking
▁flexibility
sand
▁cane
▁inlet
onga
▁agnes
▁apache
trib
▁pang
▁brave
▁wrestle
▁cites
▁utter
▁residences
cold
▁priory
elo
▁cds
▁genetics
producer
▁mcgu
▁devotion
▁economies
▁testified
▁weights
opol
scot
▁pins
▁dioces
▁indirectly
▁infring
▁rita
catholic
▁detached
bomb
▁kirby
▁thermod
▁violated
▁assumes
loading
▁confess
▁fitting
▁vegetable
▁socket
▁conservatory
culiar
▁recorder
▁preserving
▁colonization
uber
vian
▁dove
▁voivodeship
▁sharply
▁dei
▁tao
▁(0.0/
▁diane
▁therap
▁£0,000
▁presumed
▁peripheral
sab
atur
▁excavated
opia
▁emigr
▁principally
▁hostage
''",
▁pga
itious
araoh
▁garrett
▁suppression
▁artery
▁wouldn
▁likelihood
▁heroic
▁ottomans
▁connector
▁bugs
▁meals
▁denote
▁filters
▁overlap
▁monarchs
odor
▁irrit
▁resistant
▁zhu
▁rodgers
▁nutrition
▁temp
▁bandwidth
▁hoy
ifiable
▁estuary
▁definite
▁gou
▁gilles
▁schneider
▁tires
▁eliot
▁finalist
bang
erion
illac
▁bleeding
kor
spl
ppers
▁canonical
acity
waters
▁routing
▁exchanged
▁engineered
atre
▁heirs
▁allmusic
▁napoleonic
gender
▁brutal
▁coordinated
lus
kun
▁brandenburg
▁charted
marvel
▁ptolemy
▁sparked
▁separating
▁nordic
▁ruther
▁shifts
▁miracle
▁hercules
▁mcg
▁lips
accord
▁fielding
▁implementing
tum
atas
▁daniels
urst
▁presently
▁photographed
sided
▁tiles
▁viceroy
▁torpedoes
rador
▁cheshire
▁landscapes
▁expeditionary
▁methyl
billy
▁deny
heavy
▁saddle
▁simmons
vester
▁minist
▁outright
▁enthusiasm
stay
▁tuning
▁titular
agonists
▁eclipse
▁hoffman
▁horiz
▁incur
▁vince
▁islanders
▁lafayette
▁manifesto
▁adol
▁negl
▁northumberland
turk
▁fright
▁(000,000
▁workforce
kt
▁piston
▁reorganized
▁wires
▁defences
'"
pf
▁copied
▁deficiency
▁spani
▁tricks
▁premature
jak
▁disastrous
▁gund
▁lenin
▁persuade
▁affiliates
▁culminating
uty
▁harmonic
0/
▁talbot
▁variously
xter
▁aden
inated
▁freestyle
▁aggression
tin
▁fiat
▁camel
▁loot
▁supervised
yg
▁patrons
▁tunisia
▁gentleman
aul
▁lester
kil
akis
▁pompe
▁regret
▁hardly
▁liquor
▁presided
pendicular
ück
azzo
fighter
capital
particularly
▁dic
▁statutory
ein
▁bt
▁rf
uates
▁cess
▁proponents
▁hussein
▁spawned
stal
▁rfc
itimate
▁ló
oween
▁afore
▁ridic
▁mortgage
▁prescribed
▁recipients
▁stationary
aer
hea
▁shō
▁siberia
▁denounced
quel
▁eager
▁edith
▁stunt
▁brooke
▁sunlight
roqu
▁carlton
▁chaired
▁dob
▁weig
▁clarks
▁upright
▁demographic
utsch
▁flourished
▁retrospective
thia
▁vein
▁aleks
▁braun
friendly
portrait
▁registers
▁appreciation
▁supers
▁kul
▁chun
▁travis
▁troubled
▁neolithic
▁simultaneous
▁antibiot
▁entirety
▁resisted
▁confession
spons
health
hammer
▁sensory
▁sundays
bits
▁macedonian
▁solidarity
pas
chant
▁bisc
▁enjo
fighting
▁**"
▁wrapped
▁capitals
▁obligation
▁staple
pec
▁jug
▁viola
▁needle
▁scorer
▁tavern
▁rhetoric
▁potato
usive
▁recapt
▁censorship
▁hormone
gos
▁talmud
▁execute
▁fcc
▁ure
▁travelers
kom
▁glut
themed
▁jaguar
▁foreigners
▁werner
▁laurent
▁para
▁honduras
▁teammates
tland
▁eighty
ación
endale
▁graphical
▁este
▁juliet
minister
▁muc
atron
▁refr
▁yourself
▁fy
adder
hound
▁kamp
▁unfinished
▁atp
▁neville
▁nationality
ryn
editor
▁coupe
▁ladder
sports
▁bhar
▁cyan
▁alberto
▁volkswagen
▁accumulated
▁shane
▁mankind
▁sten
▁macro
▁probable
athic
▁hermit
▁bengali
▁steward
phi
model
▁''000
cane
▁noah
pert
▁zak
iland
▁yoga
▁intimate
wang
▁zeppel
▁hanna
▁rebecca
▁infinity
▁patented
ège
▁conclusions
▁glacial
▁merchandise
ickson
▁leone
▁identities
▁devastating
▁psychologist
ivo
:000
▁corv
▁gin
▁locality
eong
▁kak
spoken
static
▁guilt
▁browne
▁attribute
▁lexington
▁surroundings
mese
▁huntington
▁madras
▁gazette
▁paw
▁disciples
▁dissatisf
▁hitchcock
▁suspicion
▁supervisor
lla
iren
▁caucasus
▁ballistic
igne
▁sleeve
▁contingent
lc
▁kah
▁bedroom
▁starter
▁unhappy
▁hym
▁pors
▁shun
▁proving
▁mounting
▁deposited
▁sunderland
▁(00%)
▁basal
▁chiang
▁pascal
▁duct
▁torres
rological
hai
airn
▁perm
▁aka
▁samp
▁wrap
governor
▁cavity
▁tasked
iversity
▁backwards
ossa
▁airs
kiss
▁metre
▁kō
antry
▁conferred
▁georgetown
▁sperm
▁visibility
▁giul
▁tombs
▁banker
▁oxidation
▁colombian
cape
▁pinn
▁consecrated
▁tragic
▁plc
▁fascist
▁dorm
▁oceans
▁chatham
ths
▁hijack
▁redund
▁cocaine
▁precious
som
▁lonely
▁elevator
sher
umann
▁clips
▁knockout
▁resonance
cn
▁segregation
angelo
▁tiber
▁carpet
ayana
▁apostles
utz
▁bing
▁cartoonist
thumb
▁torch
▁nobody
▁hectares
▁rodrigue
▁payload
▁adorn
▁abdullah
escu
voice
▁desperate
▁sake
emberg
▁carmel
▁imports
▁bacterial
▁lethal
▁licenses
▁ventures
oton
▁0000-0000''
ancies
neil
▁leng
▁paradig
von
▁generalized
▁tuberculosis
▁ambient
▁signaling
▁dad
▁australians
▁gwyn
▁serbs
▁italians
▁stuttgart
igny
lement
▁incidence
▁secession
▁peculiar
▁basel
▁tuition
▁slang
▁jah
itating
▁anchored
▁lao
▁benny
▁owens
▁honolulu
▁semifinals
slide
lining
▁joaqu
▁johan
▁silva
▁pools
▁transcript
▁*0000–0000:
▁squir
▁modular
▁pharmacy
▁approximation
▁mughal
▁outlined
past
▁rar
▁nadu
india
▁omar
▁microw
▁bolog
▁brab
▁lopez
▁ensign
▁patrols
▁refriger
▁kumar
▁thess
▁café
▁myths
▁irvine
traditional
atism
▁lounge
▁spun
▁fauna
▁plaint
▁imprint
▁preview
minded
▁clone
▁hunts
▁viral
▁clearance
▁criterion
atio
chris
▁stoke
▁extracted
▁perpendicular
▁qualifications
▁assisting
▁softball
wu
otus
▁styled
▁citadel
▁distribute
▁tau
▁mesa
)''.
▁tox
▁okinawa
gger
▁kell
▁denoted
pron
achim
▁jans
ffer
site
▁murd
ugawa
▁harding
▁platoon
▁discrimin
▁lasts
holding
▁fortun
▁lump
▁urine
▁mantle
▁wn
derick
cob
wire
▁ducks
▁erect
▁rites
olla
pora
brian
▁prompting
beg
▁acron
▁manipulation
▁aforementioned
▁ibrahim
▁stealing
▁slaughter
▁excluding
▁0.0.
afts
iaries
▁enric
▁archie
)",
▁cv
icates
▁multimedia
ochond
osi
agher
▁hubbard
▁affordable
▁offence
rolog
▁boyfriend
▁recovering
▁mating
kie
▁brett
▁perspectives
rae
arez
▁protestants
▁hypot
▁pending
▁0.0%.
▁medication
tour
▁kann
▁raja
▁jokes
▁targeting
▁nwa
ultimate
▁appointments
▁evan
ibi
▁león
▁0/
▁afc
▁clem
▁fleeing
▁unwilling
complete
▁vendors
▁ideological
▁unw
▁00000000
▁transferring
▁christina
▁congestion
▁conditioning
wl
▁hul
▁immortal
▁antarctica
▁originates
▁och
introduced
ials
ptic
gradation
▁reverted
▁bilingual
etry
▁loops
▁songwriting
▁shap
▁subscrib
avers
▁spans
rapeutic
▁rejoined
▁customary
▁intellectuals
▁scrut
▁wolfe
▁stranger
▁esper
inement
▁polytechnic
▁backgrounds
tus
▁attested
▁classrooms
▁keel
▁fid
▁academics
▁courtyard
▁putnam
▁peruvian
jou
▁eli
▁mayo
▁batch
▁hobby
▁comply
▁shortage
▁mitsubishi
▁prediction
value
yp
▁keeper
▁beloved
▁discovering
hoff
▁markings
▁rodriguez
▁splitting
thorn
boston
▁intrig
▁telec
▁whist
▁quincy
▁livingston
▁mafia
rene
▁clans
▁ricky
▁kraków
▁magnificent
▁himal
▁prosecutor
atown
scient
▁auburn
▁habits
▁examinations
raged
▁emanc
▁superseded
jib
esque
▁bahá
▁assumptions
▁instrumentation
▁void
illary
▁markers
planes
▁gujar
▁edmond
▁ols
▁seize
▁dickinson
▁afro
▁vigil
▁culminated
onium
iec
mak
▁jenny
loid
amped
▁toss
▁ebert
kai
inny
flying
bid
▁liberties
hedron
▁bottles
▁feeds
▁dignity
iks
qua
▁remod
▁granada
▁moisture
itsu
▁apprentice
▁crush
▁bae
▁mosqu
▁russo
bac
amel
▁***''
▁gior
▁convinc
▁practicing
▁luk
▁xin
▁rotary
▁commemorating
rude
▁loads
▁quote
▁pharaoh
▁mortar
▁macintosh
ischen
dependent
▁clive
▁hertford
▁grains
▁bloss
▁transist
dutch
▁stays
▁apert
▁worthy
▁creed
▁dependence
▁submission
▁confirmation
▁het
▁picnic
▁utilities
db
geois
▁petrol
▁expulsion
▁domination
▁-00
▁gradient
etics
▁catcher
▁realised
manship
▁precinct
▁hostilities
▁unnecessary
charged
▁rhythmic
▁dismissal
▁automobiles
nom
anguard
▁defects
alexander
▁gerry
▁objected
▁archdiocese
aan
▁pf
▁pyr
▁zach
carbon
▁cornelius
arl
sev
▁utilize
▁shoulders
▁dresden
▁calculate
coni
▁generators
▁ravens
▁northward
etsu
▁attracts
virgin
▁flan
▁hess
▁flowering
▁violinist
▁challenger
▁honourable
andi
ometry
▁immense
▁panther
▁dm
▁neoc
cephal
▁forge
▁coconut
▁fluores
▁jain
▁prototypes
mberg
▁symmetric
pn
zu
games
previously
▁methodology
adin
▁ignor
▁elders
▁imam
▁bentley
▁trolley
phase
▁madagascar
▁0,000-
▁harmful
▁thé
▁melting
▁charging
▁mesopotam
sb
▁sci
▁boer
▁guam
öl
▁ef
ridges
▁arises
▁wetlands
defe
emar
evil
gran
▁fist
▁busch
▁serie
▁gb
stall
▁subscription
▁chong
▁labrador
adv
hav
hee
asting
▁unionist
▁establishments
abis
isal
▁staun
▁shotgun
▁obviously
▁stronghold
were
▁byrne
mentation
▁purported
▁mercer
▁ensured
▁propeller
compan
▁asserts
▁picking
▁buttons
▁restoring
▁curry
▁niece
perfect
▁namesake
▁www
▁newscasts
▁wagons
▁considerations
▁deeds
cong
▁ruin
product
▁handles
olome
▁analyzed
liga
meas
▁gloss
▁ceramic
antan
accept
▁ruined
chemical
wol
▁compartment
▁madame
▁norris
werp
garde
▁adler
▁pedal
▁spherical
▁garland
guy
▁nests
▁screened
jima
domin
▁samurai
▁happening
▁teenagers
▁shocked
▁lorraine
▁upgrades
justice
▁semiconductor
genus
▁dubai
forming
▁averaging
chus
▁ndp
direct
▁invaders
▁enduring
tsky
▁rath
▁besieged
▁constitutes
rophic
▁regency
▁nil
▁zeus
beth
▁nasal
riz
ogly
penn
reach
▁flop
▁congr
▁oceanic
onies
▁tand
▁occult
▁whistle
▁anterior
▁?
lang
marsh
▁descending
▁bucharest
▁departing
admiral
▁anatom
▁reprint
▁realizing
abs
according
▁farewell
▁fourteenth
uti
arya
museum
aram
sham
▁avon
aparte
▁molly
▁omaha
▁throws
▁grab
▁lowe
▁babies
▁hurricanes
idean
▁medalist
▁disappro
▁emeritus
▁posterior
▁twitter
▁nationalists
ranged
▁centred
▁thirteenth
▁intentionally
cki
tony
▁savannah
make
▁logging
▁resurrect
▁seth
lion
▁tes
▁chern
▁sophie
▁racer
▁transcend
num
matt
wartz
▁elliot
▁vom
categ
classic
▁fearing
aden
▁boiler
▁resume
▁exploit
hov
jung
▁:::
▁mün
▁rivera
▁versailles
▁tips
▁incub
▁enthusiastic
edge
▁hansen
▁guys
▁sandwich
▁ivy
▁lottery
▁stained
▁integers
nap
lach
▁myr
▁rubin
eaux
▁mausole
▁amanda
icho
azine
▁lifes
▁samar
ogenesis
▁cornish
▁specify
▁guardians
▁absolutely
▁boroughs
▁vaud
▁kindergarten
philos
▁ninja
▁zeppelin
▁coordinator
▁coaster
omorphism
kop
▁nir
▁lópez
▁obliged
▁scarlet
▁conclude
▁earnings
▁finances
▁hierarch
▁demonstrating
omac
▁laos
▁contractor
▁risen
▁contributes
▁disappointed
▁freezing
▁jill
bius
write
▁matth
▁cowboy
▁sheikh
▁ordinance
▁pdf
▁dissertation
▁yog
▁merging
▁lok
▁grapes
▁kus
ulture
vil
inty
leon
version
spot
irmed
assemb
▁exhausted
dated
▁liang
▁dundee
▁frustrated
areth
▁flaw
▁mash
collapse
▁fishermen
▁statewide
▁sells
▁libertarian
guer
▁fas
▁endowment
▁eck
▁consistency
▁bibliography
guez
▁lich
▁baseman
▁abbreviation
onn
▁macau
▁nichols
▁implicit
refer
▁dolls
▁ét
▁wilde
▁lifting
▁reputed
▁shelley
cov
amar
tures
goth
▁00:0
▁galaxies
▁vertices
▁cin
▁pots
▁semester
vid
▁mug
rents
▁blur
▁pile
▁marse
▁allocation
▁deed
▁templ
▁rodney
▁eaton
▁weaker
▁instability
▁disabilities
ombo
▁dante
▁deluxe
aryn
ührer
▁pencil
▁inaccur
▁intimid
▁phylogen
▁pitching
rusted
▁cousins
▁marcos
▁recognizing
states
▁higgins
▁nuts
▁aurora
▁inputs
▁reappe
▁goat
▁verdict
▁foremost
▁imply
▁asymmet
▁minimize
▁cents
▁mentally
▁surveyed
ça
▁mysteries
▁submerged
▁uncovered
slow
▁commando
pak
ashtra
▁pontiac
▁contempl
▁norms
spacing
ropolitan
▁ego
oscop
▁leonardo
▁promptly
▁decorations
▁impe
▁morse
▁namib
▁epist
▁hesse
▁urging
▁folding
ibu
▁sensation
▁villagers
ни
▁kip
▁orbits
fus
▁elong
▁hannah
▁thornton
asso
iewicz
kowski
▁corre
▁chords
▁köppen
intellig
▁backward
▁instantly
▁gus
▁bain
▁fowler
▁susceptible
▁pry
iddish
▁taipei
▁containers
▁patches
▁explorers
▁interfaces
those
▁evaluated
sunday
▁buffy
▁ascent
▁steele
▁overtime
aft
▁(0–0
▁bamboo
▁wharf
▁investor
aten
▁:0000
▁weiss
▁subl
idable
marked
▁randall
identified
▁jal
▁annot
▁recruiting
udge
▁fuk
result
▁eleph
▁damasc
▁hilton
▁ethnicity
▁rpg
▁substrate
▁rutherford
aldi
clay
íguez
▁stratford
▁syndicate
imus
ushi
▁heel
▁clifton
hex
pict
▁forensic
california
elope
▁unin
▁beams
designed
▁neglect
▁deliberate
▁problematic
▁vort
▁planting
lein
▁ged
▁cumb
▁armist
▁cylinders
▁utilizing
▁illegitimate
iem
▁climbed
▁arte
▁obit
germany
uclear
▁newcom
▁seventeenth
▁elector
aci
aea
▁melt
nothing
▁ironically
▁axe
▁scripture
▁baxter
▁aesthet
historical
sud
ener
▁kahn
▁hubert
▁000°
▁tired
entertain
▁exploded
▁labelled
▁straits
literally
▁showcase
▁bucket
religious
▁olig
▁sina
▁ucla
▁#0,
friends
▁outlook
▁immunity
00),
monary
▁jiang
▁michaels
▁protesters
▁hue
▁mayer
▁swear
weather
▁boycott
▁sixteenth
▁undergone
▁assemblies
teacher
▁literal
▁emmanuel
▁protested
icacy
ipedia
▁skirm
▁arising
▁aquarium
▁tehran
▁meridian
▁multiplication
▁beacon
▁globally
▁positively
swed
zt
songs
▁humour
ismatic
▁trusted
iken
columbia
▁monmouth
oped
byshire
▁admits
▁staging
▁promotions
▁formulation
▁melodies
▁circulated
▁administrators
▁mou
feder
▁epidemic
▁concurrently
▁repos
▁tackle
acies
forman
▁adobe
▁busiest
.0,
hope
▁eigen
▁expresses
▁talked
▁heather
▁blessing
▁baton
▁spells
▁schen
▁hiring
▁sticks
▁scouting
vc
ecost
padding
▁upheld
▁mitochond
ík
▁ranged
▁embraced
▁fortunes
faith
▁hazel
▁secre
▁choral
▁converts
▁unmarried
▁distortion
emma
shin
coal
▁blanc
▁senses
northwest
▁td
▁archaic
▁remastered
chat
▁dumb
▁barrels
zie
▁lust
▁recruits
▁specials
▁examining
▁rin
▁hats
▁0000-0
▁helium
▁newest
▁restart
▁proclaim
▁dans
▁touched
▁induce
▁chak
ataka
▁ville
▁dynast
▁catches
▁chit
▁denotes
▁destructive
▁vy
▁bism
▁earthquakes
▁reorganization
▁conan
▁arches
▁coding
▁massac
▁energet
▁uncom
lt
phot
ález
▁xia
▁owed
▁emphasize
▁raph
▁seism
▁africans
▁battleships
rade
▁hing
▁prisons
cox
▁levi
▁prel
▁shelf
▁bundle
arat
▁reviewers
eyed
▁gov
▁palat
▁onward
▁valencia
▁pneumonia
▁burgh
▁00–000
▁cannes
▁amnesty
▁antwerp
universal
▁rodríguez
parents
▁0000-0000:
▁formulated
▁distributions
▁mls
▁babyl
▁(00–00
▁hanged
▁pitches
phen
ifferent
▁noel
▁postwar
▁oversight
▁objections
▁bags
▁melodic
▁escaping
▁robes
▁viruses
▁iw
▁pizza
▁nw
frequ
▁excited
▁telecom
▁internally
awan
▁impose
▁mistakes
imag
ürtt
taker
atorium
▁somalia
bun
zac
kore
▁naturalist
▁edo
▁bally
▁fined
▁orion
▁venezuel
idas
▁relieve
▁rale
▁ginger
▁phillies
▁psychedelic
mol
ionage
▁partisan
▁boyle
▁agn
▁saloon
otechnology
irth
▁pah
phony
▁#00,
▁ours
▁gifted
▁stairs
▁oswald
▁upward
▁demonstrates
▁porto
▁outward
▁schwartz
▁obstacles
edience
▁sabbath
▁tanzania
sah
▁coffin
▁lucius
▁generates
ourt
▁dus
▁parallels
▁dahl
▁graff
growing
▁rushing
ayas
▁telep
▁commemorated
strom
▁ori
▁midst
▁devote
tis
enko
▁climax
▁groove
▁grocery
▁swallow
▁friedman
▁compatibility
▁heal
▁jian
▁visa
▁allah
▁rogue
▁convergence
▁partnered
édé
doll
weed
chool
▁declares
▁taiwanese
got
▁gibbs
▁gubern
▁bavarian
▁urb
▁iroqu
▁relics
▁synonym
▁archaeologists
carl
ibo
▁nure
created
▁acquaint
▁criticisms
▁transmissions
▁daylight
▁diagnostic
bush
▁dye
▁cellpadding
▁striker
▁iod
▁tug
▁northampton
▁rn
enport
▁emirates
▁retailers
▁assessed
▁coefficients
burger
▁decimal
▁mansfield
▁dalton
▁courtes
▁degradation
▁porsche
▁diplomacy
▁conscience
▁granddaughter
▁mih
▁iris
▁rotor
▁*00000
▁pillar
▁wilkinson
▁spontaneous
build
▁kitche
▁bangkok
▁discharged
▁portraying
▁invade
▁trustee
lyss
▁aria
▁calcutta
clave
vous
▁programmer
md
▁aft
▁siem
▁müller
▁bologna
appropriate
▁accidental
idium
▁shack
▁dolphin
▁panthers
▁(000–000)
▁minus
▁gonzález
▁dough
▁turkic
▁detector
▁overview
▁yas
▁fang
▁wyatt
▁campaigning
▁fibre
command
▁packed
▁marilyn
▁universally
▁weir
▁drago
▁crusaders
▁marijuana
▁quay
▁encir
▁madness
organized
▁catalyst
instr
▁affirm
▁revital
▁satisfaction
ulo
▁dred
▁mali
highest
▁château
▁ruff
▁mccoy
▁assyrian
▁professionally
pap
▁lungs
▁magnes
▁topological
▁fender
▁accreditation
sold
bottom
kent
sonic
▁directive
▁dinosaur
▁conversations
panic
▁arter
dé
maid
▁mainline
gau
▁uzbek
polish
▁khmer
▁musket
▁nuclei
▁promoter
▁prosperous
lishes
▁elastic
▁maturity
uala
▁meta
▁exceeding
▁amiga
▁donor
▁tutor
▁nursery
▁blown
▁wien
▁zü
illas
novel
▁belly
▁contradict
''0,
▁watches
imov
similar
▁brewing
▁amplifier
tos
▁investigators
▁vod
▁bram
▁eust
▁hazardous
▁routledge
▁hydroelectric
▁nz
lords
▁benton
▁virgil
▁suspects
ürttemberg
▁$0,000,000
inside
▁antony
▁forrest
▁escorted
dj
tl
whose
▁envision
ussy
apeake
▁hath
▁sino
▁ashore
▁##
▁crip
▁washed
▁differed
▁ambiguous
áz
ianus
acting
island
▁vickers
▁hid
▁buyers
▁incorrectly
▁rama
▁dread
▁guess
▁branding
▁eastward
▁cellspacing
ribes
▁taft
▁listings
▁archibald
ignon
neck
olor
beyond
▁erich
▁garfield
▁diffusion
▁balkans
-0-
▁nept
▁fringe
▁modify
▁incredible
▁thoroughly
ilia
wski
▁samoa
▁wills
▁stanton
▁bian
▁justices
▁nathaniel
▁disappearance
scar
▁dmit
▁incon
▁papua
▁caution
▁exploited
▁suggestions
sister
▁finch
▁insane
▁transplant
brun
johnny
▁sabot
portion
alli
▁capp
▁teresa
▁sympathy
▁analyses
▁recession
▁hz
▁velvet
yy
▁uhf
▁concluding
▁allot
▁ornith
fix
thren
▁proposes
▁dionys
▁regina
▁android
▁tenants
yth
erick
▁raced
▁bowler
▁podcast
▁creators
erc
▁akin
▁plun
▁evaluate
democratic
▁fundament
▁importantly
urus
ivalent
▁enjoys
locked
▁maver
▁multiplayer
▁predominant
▁justification
▁jade
▁exits
ivities
▁europa
▁facade
▁burmese
▁chromosome
professional
▁substitution
enthal
▁unanimously
follow
▁volta
▁dorsal
▁capsule
retto
▁harness
▁chaplain
parts
▁thief
▁reggae
▁0:00.00
▁grammatical
▁cooler
▁twe
▁derbyshire
ipa
▁tuned
▁disagreement
▁contamination
▁kinetic
itsch
▁composing
▁dispersed
▁commenting
▁nih
instit
adena
▁hust
▁tamb
▁colise
▁pax
▁mould
▁configur
▁coincided
▁specialists
▁noir
▁diagonal
▁lincolnshire
dry
tek
▁chung
▁humidity
▁mystical
▁interfere
jones
▁veterinary
▁inauguration
bent
magic
▁elephants
▁frontal
expensive
▁tremendous
▁explanations
check
▁rods
▁compensate
▁waist
▁gubernatorial
hetto
▁wemb
schild
▁revis
▁stras
▁dramas
division
▁migrants
itations
▁bonaparte
antics
▁rains
▁mozamb
formance
▁garbage
▁lace
▁orchard
▁damascus
uncle
▁primetime
▁chie
▁guan
▁builds
▁slowed
▁expo
▁intro
▁unfair
▁liturgical
▁crab
rances
▁rebounds
▁antagonist
verb
afric
▁glasses
▁unitary
▁launches
▁charities
▁imaginary
▁ponds
▁gloucestershire
▁realms
lace
▁unite
▁fellows
▁potatoes
mist
quist
▁worried
▁aph
▁honoured
▁prophecy
▁teens
▁strath
▁huang
▁moody
▁apostle
▁kensington
oway
drums
ór
icher
▁poe
▁meantime
rolls
murder
▁slate
▁kicked
wik
▁stole
▁assured
▁chairs
▁frankish
▁usb
▁everybody
▁naut
▁drained
yder
adors
▁mitch
▁romeo
banks
▁endurance
▁scattering
▁reissue
▁sof
▁nineteen
▁piedmont
enden
philip
▁gauss
aaa
▁qin
▁lough
▁statutes
▁faç
▁guth
kre
uming
▁schw
▁underworld
▁daim
▁irene
cen
▁franks
▁fulton
kap
▁eminent
oub
▁biodiversity
▁strengthening
iq
▁dissip
▁plenty
▁harriet
▁passport
▁renovations
ropic
▁superiority
▁faust
ruz
lap
uben
apple
▁stellar
▁nave
ursion
▁alban
▁fresco
▁solitary
▁menn
▁0000"
▁postponed
dwell
▁boone
▁scholarships
▁sins
▁syllables
▁subscribers
▁transitional
alist
▁extr
▁judah
▁quasi
▁batsman
▁goldberg
ande
▁seaw
obil
adle
ethn
hungary
▁outpost
▁sg
shima
idelberg
▁corporal
▁johannesburg
▁html
onders
▁vog
▁pries
▁zhao
▁forged
▁monkeys
▁occupational
▁periodically
ulla
▁cus
chairman
▁fé
ressive
▁seldom
▁spectrosc
among
jō
pick
▁miranda
▁lom
▁venge
▁richest
▁militant
▁nicholson
▁broadcasters
onds
▁figur
▁turbines
ranes
▁caliber
▁martine
▁cameroon
▁ramb
uition
▁yukon
▁curtain
vana
▁dab
ographs
ricting
anao
nard
▁gug
▁iee
▁canary
▁ratios
▁recalls
weg
▁corpse
▁traject
▁consultation
ozo
▁ria
▁approve
▁respects
▁dynasties
▁nutrients
ahaw
▁flot
backer
▁evelyn
▁pillars
myst
▁selecting
▁faw
▁eddy
▁upwards
atore
▁vega
▁schiz
▁mausoleum
acom
▁enfor
▁supplying
lip
▁revive
▁genetically
▁cyril
▁maggie
▁yiddish
▁drilling
▁preferences
yss
hadow
▁scare
arty
▁limbs
▁wilts
▁liturgy
nf
▁elk
▁idi
▁instinct
▁routinely
▁propagation
▁gaps
▁toulouse
▁carmen
▁excavation
▁contraction
rax
▁coasts
▁contests
▁aide
southe
▁freshman
▁penguins
▁harmonica
dave
▁births
▁mahara
▁integrate
tenberg
▁prevailing
▁evid
▁wrist
▁chooses
▁deleted
▁bernstein
▁kramer
▁dartmouth
▁implementations
cycles
▁exodus
▁ingest
▁ridges
character
▁compelled
eti
▁xml
chner
▁tann
▁dewey
▁picks
▁jewelry
▁coliseum
obar
▁settler
▁ministries
▁comparatively
ietal
match
▁nomen
▁doctrines
▁judgement
emper
▁suspicious
▁recruitment
▁irre
▁divides
▁pleased
athed
tiles
▁dispro
▁"'
oulos
▁antique
▁wholesale
food
rification
▁advertised
aius
▁spiel
▁imagine
▁reinstated
▁rapt
▁unse
▁sunni
▁osborne
▁reigning
▁farmland
▁decept
▁invading
▁beginnings
tab
feat
borah
▁remed
▁northbound
▁raff
broadway
▁belmont
▁undertake
▁pentecost
fill
▁hatred
▁*****
▁roche
▁arbore
iyah
nature
ocytes
▁divinity
▁surveyor
oos
francis
▁loving
▁dictatorship
▁eh
▁kemp
▁monumental
▁tablets
sponsored
▁organist
pom
▁casa
▁maybe
▁affinity
▁venezuelan
▁:0
▁erupted
▁streaming
état
bbc
▁creativity
uges
▁rabbin
defeated
▁cannons
▁monitors
...''
▁charm
▁microwave
obs
▁chau
heon
jevo
▁abol
sug
▁hymns
▁anyway
▁disliked
▁medications
▁ping
▁mystic
▁twilight
▁signatures
▁substituted
▁mow
inational
▁retrieve
▁establishes
▁yong
charge
▁innocence
indo
ighton
winner
▁presiding
▁conditional
▁goldman
aley
▁yankee
oran
▁aiming
▁renewable
▁vernacular
iera
▁byzant
▁dickens
foc
meg
simon
▁albion
bilt
litre
▁avalan
▁informally
▁crete
▁disadvantage
lop
▁liaison
▁matrices
▁neglected
ibles
▁bunny
thunder
▁errone
▁narrated
itud
▁neon
▁lds
▁protector
▁wembley
etor
northe
▁phased
▁scandinavia
cers
uo
▁ada
▁ist
▁havana
▁potomac
dur
▁farn
▁nolan
▁pumps
determin
▁boulder
▁nowhere
cele
▁fatty
▁posthumous
▁computation
hev
mam
annie
bride
etown
▁hume
▁schul
▁balkan
▁sanctions
''."
▁kro
▁cooke
▁satir
▁cascade
▁davenport
▁tx
▁mang
▁angus
▁discarded
▁restructuring
▁gearbox
▁sinatra
▁disintegr
▁prospective
assa
upta
▁ort
−0
houn
▁audit
opening
nets
▁mutually
▁bordering
▁relinqu
conscious
▁bres
▁bosnian
▁dinosaurs
▁icons
▁hassan
▁racist
ilateral
▁crimson
▁generous
▁consolidation
(0000
cessions
▁hail
superman
▁economists
▁filmmakers
▁axle
▁bios
colored
▁seller
avor
advert
tip
hous
▁cobra
▁ricardo
▁disasters
▁wendy
▁vertex
▁raleigh
▁recipro
americans
introduction
anmar
uffle
ici
▁moons
▁hailed
disciplinary
▁nobleman
▁metabolism
vale
▁nons
▁whig
▁hindus
▁donovan
▁ferries
▁pleaded
vie
▁leopard
zl
▁ieee
▁tablet
▁captains
▁cartridges
▁medina
▁daytona
▁investigative
▁mccain
irl
▁',
▁nf
▁cag
▁distributor
hoe
▁ust
▁corros
▁steelers
kol
bara
▁diaries
▁suffers
▁comparisons
▁airplay
▁browning
wes
bler
directed
oit
oks
antha
▁kart
▁luigi
▁neighbours
faced
▁fost
▁bunker
▁intrins
▁senegal
▁stimulus
▁middleton
▁naw
▁pledge
▁tuscan
▁mae
▁pau
▁prud
▁trit
pherson
▁darling
▁simplest
etto
▁rugged
▁khal
▁demos
▁sergei
▁gentlemen
▁priesthood
▁geographically
onyms
ungen
▁kimber
▁lizard
▁nonprofit
▁southbound
gev
▁wiley
▁armistice
▁perimeter
tet
aroo
▁shang
▁downward
▁refurbished
▁therapeutic
nin
▁hyder
▁masculine
ayama
▁acronym
▁yok
▁painful
structure
▁illustrate
▁lyrical
▁sacrific
▁enthusiasts
thus
▁feld
▁sigism
▁efficiently
raj
▁aless
▁barred
▁quartz
▁relaun
▁murderer
▁relocation
▁beir
brough
▁reset
▁tempo
▁activism
▁differentiate
arra
▁raft
freedom
▁coincide
lv
meter
activated
▁dwellings
▁wilmington
▁ł
▁neal
▁applicants
▁concession
▁noticeable
▁oust
▁pept
▁shelby
▁builders
▁sustainability
kab
▁bung
▁smell
▁erotic
▁lawson
▁refuel
ylene
▁anast
▁(000.0
▁pedest
▁brethren
ych
▁rbi
arcer
ritis
▁turin
▁simplicity
nos
▁isabel
▁tracked
▁espionage
separ
▁distinguishing
▁poc
▁dormit
▁domingo
▁marrying
lander
▁encoded
▁philips
▁neutrality
snow
▁beetle
▁tobago
▁tokugawa
fleet
diction
▁paramil
▁pauline
▁royalty
pain
▁opus
▁buyer
bish
▁shy
''/''
▁itunes
▁winding
▁explores
▁lois
▁pett
illand
▁spine
imental
▁improper
▁encryption
opa
▁pg
▁bru
pressure
▁augmented
qing
▁lax
▁copa
▁chenn
▁dunes
00-
▁eco
defense
▁resolutions
pod
▁mead
thorne
▁reeves
▁greenhouse
adeus
▁desires
üss
flash
itures
erseys
▁recycling
▁accumulation
pian
▁colts
▁booker
classical
hiro
poli
ttes
▁paz
▁gland
▁ants
▁forc
▁swimmer
dre
jal
▁chow
▁viad
▁apocalypse
▁subjective
inka
▁mari
powder
▁persona
▁mandated
▁aviv
▁tyran
▁visions
▁spaniards
▁oro
telev
▁ramsey
▁penetration
▁sass
▁abort
▁misunder
▁jumped
▁hinder
▁tasman
astically
▁barangay
▁databases
▁unanimous
▁disappointment
▁adhes
ireland
ependence
▁pathways
▁fundraising
overy
degree
▁quaker
▁hearings
▁dismantled
▁nude
▁annoy
▁chill
▁qatar
▁schooling
▁redesignated
▁modernization
ogg
▁thie
▁banana
industrial
▁fireworks
ijk
geons
▁jockey
▁boiling
▁unexpectedly
tang
▁apt
▁fda
▁seg
▁rainy
emption
▁crossroads
▁worms
▁creole
▁maximilian
▁raises
▁mosquito
diam
▁bays
▁jacqu
▁covert
▁tensor
▁disturbed
orse
▁encourages
▁dru
▁graphs
▁wikipedia
▁regimental
orp
chall
▁denial
educt
uzzle
▁seneca
▁warship
etes
thorpe
▁belts
riac
aghan
▁mazda
▁yielded
▁manually
▁acknowledge
▁ineffective
clear
dress
roots
▁prag
▁dexter
ungs
▁storyt
▁royals
▁weighed
▁mastering
▁transports
estro
herst
ricular
/-
hir
▁severity
▁benefited
▁impair
▁chronology
▁bump
ippers
▁hormon
▁crimean
▁kut
uren
erton
loads
▁backs
▁potent
▁killings
▁favourable
▁api
▁kow
mess
▁liga
▁toilet
▁stephens
▁dah
▁styling
▁pilgrims
▁archaeologist
▁taun
▁provoked
vich
▁luna
recogn
▁bliss
▁commandant
▁greco
arette
▁quran
lr
asta
inees
andrew
▁preaching
▁nok
▁adri
▁hers
▁premise
▁botanist
▁guinness
▁woodward
▁analytical
▁progressively
ayy
▁kauf
▁drowned
▁ranc
▁fairfax
▁robbins
▁playhouse
▁blunt
▁immin
▁ransom
▁grazing
▁reasonably
▁jumps
▁yorker
▁elegant
▁envelope
cw
▁postage
hawks
filled
▁exponent
acha
▁rooted
▁purchases
machine
▁rhythms
▁kathleen
ät
ieg
▁touching
▁protectorate
▁strick
▁zimmer
▁analogue
▁proportions
akin
ivist
▁clocks
chaft
girls
▁ames
▁incarcer
▁saunders
▁metac
gett
franç
riv
▁tf
possibly
▁spice
digital
▁rewarded
▁ayr
dings
▁nesting
▁bourgeois
▁nuremberg
▁divisional
▁litigation
icy
infl
▁freel
▁filing
▁morale
▁spill
▁embrace
''):
▁afflu
▁broadband
▁yoko
chichte
▁equals
▁loft
▁snyder
▁ornament
▁bilateral
▁responding
ieder
▁galile
▁eurovision
lehem
▁ting
placed
ropolis
▁theodor
'');
00.00
wicks
pless
▁fission
▁etymology
eval
izen
▁borg
▁brink
▁fuels
ström
esville
▁clutch
▁extermin
▁paragraph
nbc
▁mab
onder
▁lass
▁sele
lysses
▁0.0%,
▁checked
▁dictator
entertainment
esi
governmental
▁cate
▁hodg
▁psychoan
cke
wah
▁lament
▁fernand
▁heidelberg
)-
▁quiz
▁sentin
▁strang
▁pledged
vag
▁tō
floor
▁kand
▁hostility
▁lyons
▁contributors
conserv
▁perennial
▁relying
▁frederic
▁vertically
▁disappointing
ées
▁quir
italia
▁adjustment
▁accessories
chard
kur
asan
▁ont
▁averages
▁appalachian
▁oman
▁centenary
▁hä
▁dill
▁sofia
▁convincing
▁depictions
▁niz
▁bite
▁tyne
▁bucks
▁nurses
▁inexpensive
lys
▁00.0%,
▁inflammation
▁usc
▁scrub
imperial
▁separates
▁northernmost
▁postgraduate
▁deacon
▁cerebral
▁interpreter
▁termination
opal
▁noct
▁vivid
▁metropolis
▁concessions
tow
omat
rama
▁patton
bé
▁claudius
▁weighing
▁hector
▁pamphlet
▁textiles
▁amalgamated
.'"
ersen
tory
▁kov
urnal
▁martí
▁rudolph
▁southernmost
▁pistols
▁waterways
▁spokesperson
influ
▁commodity
▁modulation
gets
▁nah
▁bount
▁enclosure
▁inevitable
▁gps
finitely
▁springer
▁businessmen
▁certificates
kg
▁engel
▁punished
▁reptiles
educational
▁splend
▁seminal
▁inverted
▁solicitor
uj
▁bans
▁rift
▁imperson
▁emigration
▁specialised
▁gom
ergic
▁setup
▁welch
▁somehow
▁acad
▁ought
▁diverted
▁fum
▁annih
▁subcommittee
▁trait
▁0000–0000''.
▁shab
▁shame
▁pueblo
▁workplace
▁alterations
▁supplemented
/"
▁kron
▁diaspora
angle
voiced
engined
instrument
▁wink
▁blitz
▁reactors
▁reviewing
▁meaningful
00.0
▁tint
▁optics
▁sandra
▁simulcast
owl
yton
might
▁klaus
▁mcgill
inspired
▁destroys
▁axes
▁carcin
▁infectious
hort
icious
▁butcher
▁adaptive
▁wiltshire
▁landowners
▁io
arse
▁cray
▁sorts
▁warnings
▁apprentices
sad
▁concourse
iatric
▁wight
▁dietary
▁questioning
gaard
▁pickup
▁chennai
▁supplier
▁physiological
▁etern
▁obituary
▁barney
▁mustang
jane
▁iberian
▁abe
▁blanche
▁galicia
▁magician
oeuv
itives
▁energies
▁initiate
▁disguised
▁morphology
▁milo
▁doses
▁ashton
colonial
oler
texas
▁discretion
ppard
southwest
▁predictions
0.00
ogens
▁berth
▁ballads
▁disguise
▁limerick
▁xp
ihad
▁griev
▁inconsistent
▁chili
▁entropy
affiliated
cini
tower
▁vera
▁strokes
▁tsunami
▁blackwell
▁quantitative
agreb
joint
years
▁verlag
▁goldsmith
▁maharashtra
▁koh
▁sunrise
opsis
ormal
▁gett
▁hammers
▁ambition
odian
▁mourning
▁caric
fires
▁galway
▁uniquely
ihu
▁leuk
▁outrage
▁mythical
▁reprised
▁iq
lene
▁kag
anson
▁pixel
▁martyrs
’,
angi
population
tub
▁radios
▁intermitt
orange
▁preface
▁viaduct
▁pulmonary
▁supportive
rius
rost
money
▁dull
backed
▁freeze
▁translate
kos
▁compton
▁acquitted
▁exams
▁futur
▁specializing
▁00.0,
▁densely
▁linguist
▁reflections
▁rahman
▁(0,000.0/
ietz
▁osm
berts
▁phel
border
african
▁latvian
eled
uper
▁schwe
▁malaria
▁aqueduct
▁streetcar
▁ery
▁polk
▁tractor
▁shoreline
spider
▁arbor
▁takeoff
tay
▁haunted
▁curv
global
▁jamaican
▁constance
hyth
▁heroin
▁confiscated
▁compose
▁visually
▁fren
▁originate
▁residency
▁commentaries
wd
▁0000.)
▁alain
▁posting
isław
▁saddam
▁mongols
▁fulfilled
▁wakefield
ulg
object
▁iroquois
▁candidacy
pseud
▁norte
▁tortured
▁caut
him
uil
▁irwin
▁fourier
▁portrays
▁continents
treat
monarch
turkish
▁jensen
▁resent
▁consulate
▁ministerial
▁**00
breaker
▁beaumont
▁coupling
▁deported
▁mornings
edited
▁godfrey
▁nay
▁ubiqu
▁beirut
▁orioles
▁assignments
rö
almost
workers
▁bricks
▁redisc
▁transformations
rox
▁bois
▁muir
during
▁gesture
▁terrorists
▁ns
boldt
▁lexic
▁regin
▁valle
ackdown
▁perfection
brig
steen
▁pony
▁gallagher
▁emphasizes
▁billed
▁plunder
▁committing
▁hutchinson
▁contractors
▁dressing
pure
▁nina
▁frankie
▁lact
▁engraving
much
witness
▁controllers
▁00/
▁leib
▁warmer
▁deadline
iku
buster
▁spoon
▁joints
typically
▁convertible
nag
yna
tone
enade
▁lars
▁moose
ouk
▁aeg
▁merry
▁replay
▁bohemian
▁faculties
▁mozambique
izu
▁gonna
▁trailing
cant
▁exciting
▁hq
▁ik
▁skys
aliation
welcome
▁impulse
▁theresa
▁supremacy
▁exceptionally
▁pis
▁purity
▁vanguard
▁cac
▁jol
▁fay
hama
▁chieft
▁orator
fighters
▁sahara
▁grange
▁spheres
▁noteworthy
▁grun
▁charlton
▁disagreed
utter
▁ghosts
▁bizarre
umps
ikawa
▁pérez
embrance
▁masterpiece
▁blond
greatest
▁invasive
commercial
▁concealed
▁compassion
uded
ionic
▁bahamas
▁equator
▁vaccine
▁prolif
▁republics
▁prevalence
▁dai
▁unpublished
000000
▁masks
▁ingredient
seau
▁ethanol
▁microphone
ević
▁kyr
odeon
vig
ocean
▁nero
▁laden
▁packers
acet
▁tna
▁toe
▁indy
square
▁marino
▁mutants
performance
▁yen
▁confederates
etric
▁hohen
▁rosem
hearted
▁cannabis
▁synonymous
cub
▁coke
▁framed
▁strains
▁lobbying
▁stockton
ceae
▁bestowed
▁mistakenly
ан
00'
chip
▁shri
▁brune
▁keller
▁textbook
▁announces
▁cantonese
▁sigismund
▁configurations
▁sinn
▁adolesc
▁buckley
▁precedent
▁secretariat
▁orang
▁spurs
▁sok
▁sights
▁congregational
hong
▁retention
▁fatalities
▁transparen
▁tails
▁mccorm
▁nicole
▁deposition
zek
▁excit
▁broker
▁spends
allo
bran
▁kib
brain
native
▁yeast
▁magistrate
▁regeneration
▁bly
▁manson
▁suppose
▁monterey
▁shrewsbury
oge
▁"(
deck
▁emm
either
bearing
▁enslav
▁cadillac
▁humboldt
▁scenarios
vit
▁amos
▁shrim
▁toxicity
▁exaggerated
▁korn
▁bauer
▁theorist
▁00,000,000
▁overturned
×00
arum
akura
idine
▁cret
colonel
▁romney
▁chesapeake
▁hemp
▁hunted
▁mortal
northeast
▁hereford
▁inclined
▁metabolic
▁initiation
eers
ydon
▁dealers
▁recognise
▁waltz
▁utrecht
▁detained
▁weekdays
silon
▁grille
▁arrange
▁pricing
▁watkins
▁lama
▁sway
resident
▁imminent
▁celebrates
igate
▁scratch
▁contempt
▁scarborough
eurs
▁tory
▁jeanne
▁gras
pieces
▁sheld
▁0000-0000)
▁ü
▁xxx
▁forested
cb
▁oasis
orrh
▁depths
▁richie
▁apology
▁plaster
▁aristocracy
▁poz
▁lend
▁vain
▁sainte
▁condens
grace
▁carac
▁consume
▁saus
ateful
effect
▁sexes
▁nebula
▁disciple
wee
▁kes
▁lakers
▁rigorous
▁shortest
▁mongolian
▁vr
▁gis
▁espa
▁aristocratic
▁prostitution
"'',
sung
masters
▁clever
inctions
▁rebranded
empire
▁golfer
burne
▁grenade
▁silesia
▁surprisingly
ák
▁huron
▁twisted
acons
gross
muslim
college
▁leiden
▁defendants
▁antit
▁fungi
▁meiji
▁otter
▁rumours
▁seniors
▁fifteenth
▁prospects
mé
emis
▁gers
▁bombed
▁ratt
▁anecd
alice
onite
▁nell
umatic
officially
charlie
▁assistants
▁paler
▁furious
anza
▁nikolai
▁royalist
▁confidential
▁emancipation
kid
mie
▁nd
neal
▁degr
▁trafficking
▁transporting
prints
▁conjecture
▁vanderbilt
xton
▁hicks
▁coward
▁procure
▁convened
▁socialists
▁illuminated
▁hé
review
taking
▁opium
ayn
▁tyr
▁cumm
▁mussol
▁bytes
▁hanson
▁wilkes
▁contaminated
▁moderately
init
oglob
ollah
▁lange
▁grig
▁plea
▁slots
▁grouping
▁townsend
▁retaliation
▁cet
stairs
wei
bies
▁wield
negative
▁manners
▁staircase
▁nail
▁salts
▁emerald
▁navarre
▁rejects
▁inactive
▁printers
▁univ
hetical
boarding
▁raphael
▁succeeds
▁halloween
oak
▁lj
▁sliding
▁repeating
ritt
acion
ippon
wickshire
▁gymnastics
▁reservations
▁multinational
ativ
▁titus
▁routed
▁doubts
▁costello
▁mussolini
otto
▁avid
▁steiner
▁catalonia
▁ismail
▁equestrian
▁burt
▁dáil
▁illegally
idon
equal
▁buoy
▁paula
▁piers
▁bombings
▁merlin
▁protects
▁crossings
▁havilland
▁woodlands
▁franchises
▁facilitated
urian
ellant
▁bland
▁000,000,
▁envisioned
▁staffordshire
bart
idea
▁algae
▁hooker
mountain
▁experimented
▁ernie
▁harald
▁tendencies
▁bü
▁zagreb
▁zürich
▁intercepted
everything
morn
▁tanker
▁bret
athlon
▁foley
personal
ellery
▁pigeon
ographers
▁replaces
▁correctional
yō
progress
▁bingham
▁psychic
▁depressed
mrs
▁tz
▁pean
▁gaulle
▁amplitude
▁prejudice
▁commitments
their
▁click
▁locke
▁sonny
▁slayer
▁predator
▁astronauts
arg
▁safer
fulness
▁dangers
▁electroly
▁invasions
▁jav
▁carriages
▁lyndon
▁turing
▁grandchildren
ós
▁cylind
▁joachim
▁marches
▁semantic
▁ditch
iad
▁xu
serving
▁dd
▁dz
▁björ
▁disks
▁hearst
▁lithium
▁np
enton
georg
▁bonif
▁apartheid
authored
▁monsoon
andre
▁antisem
information
▁expenditure
ád
rarian
vation
▁tenant
robin
▁suez
▁daisy
jm
▁feb
▁wishing
▁capitalist
▁catching
▁climates
nah
▁jó
cans
▁slug
▁distill
▁flyers
▁guerrero
▁sellers
▁heinz
▁thriving
ção
▁nish
▁façade
▁impart
▁accomplishments
nl
▁elf
▁icc
▁unused
▁wicked
▁hillary
▁nomencl
▁launcher
▁contrasted
▁decomposition
▁taliban
▁offences
▁conflicting
▁differentiation
▁wich
▁freddie
pha
▁quadrup
▁galactic
yrus
▁herd
▁resembled
estan
michel
▁slash
▁fencing
▁refract
▁detailing
▁directorate
▁syndication
▁amherst
▁beverage
▁chinatown
▁corrected
▁expenditures
hanna
▁gloves
▁forerun
▁paradigm
▁parc
▁deprived
▁reno
▁receip
tot
grant
▁tina
▁medall
▁pietro
▁splits
▁empires
▁carthage
▁konstant
ichen
terdam
▁phonetic
▁convex
▁(00.0000
▁daly
▁foll
▁flynn
▁paolo
▁revue
▁troph
▁unicode
▁knives
▁sparta
▁rendition
▁ecosystems
▁ely
▁senna
▁inappropriate
▁amc
▁tast
▁lucia
▁token
▁myanmar
actus
▁cary
lieutenant
▁complementary
bling
▁igor
▁unavailable
zine
agrams
▁nationale
behind
▁glands
▁alias
▁cicero
▁variance
▁evergreen
▁000–000,
▁competes
▁transliter
ority
▁aren
▁genoa
▁deteriorated
▁transylvania
elis
jong
▁pou
academ
liners
▁believers
▁tightly
bak
▁hord
▁laurie
▁ambrose
▁posters
▁journeys
oteric
▁kitty
▁colorful
nev
rada
▁deborah
▁propose
ventional
▁phosphate
opsy
▁ers
amaic
▁turf
▁hears
▁evolve
▁eurasian
▁librarian
ricate
seller
opathy
phosph
▁hepat
▁burgess
▁threads
▁energetic
igy
▁puff
▁odyssey
yenne
▁vulcan
data
must
yler
▁phe
▁(000),
▁skinner
▁awakening
▁modernist
"''.
▁firstly
▁000;
▁mered
▁stripe
▁remixes
▁wizards
▁barbados
▁humanist
vt
acious
automatic
beautiful
▁£0.0
▁autob
▁reliance
▁karnataka
▁stephenson
▁metamorph
organic
pun
▁documentaries
▁tara
▁continuum
▁biologist
esta
image
micro
▁codex
located
▁peterborough
dot
kamp
unga
▁insulin
▁ballroom
▁alliances
▁pubs
▁sermon
▁keyboardist
zin
-00),
▁appreciated
▁mö
ellen
wic
▁obe
▁sequels
▁nigerian
acker
runner
iated
▁cypri
▁profiles
▁theoretically
▁truce
▁barons
▁liberated
▁0-0,
▁curious
▁baba
▁unle
▁beers
▁troupe
▁plagued
dvd
▁enlist
▁intentional
▁kt
buch
tall
▁oils
ianism
mcc
▁hei
▁unreli
▁thal
celebr
▁synth
▁namibia
▁beatrice
▁engraved
better
▁depended
▁beverages
▁nava
▁murdoch
▁riemann
▁scriptures
gans
▁medici
▁grounded
hog
ysburg
▁euclidean
▁liberalism
▁mythological
▁sums
▁andes
ounding
▁informs
▁lc
▁psi
swich
▁sampled
andr
worked
▁adel
▁duch
ologie
▁houghton
uran
republican
▁kidnapping
▁drastically
▁biom
▁tile
▁resurg
▁glaciers
▁parental
imated
▁bowls
▁smile
category
dock
gents
▁kolk
▁crowded
sop
andum
▁balcon
▁horton
▁sparrow
▁gnu
▁aeros
sley
▁stalk
▁chrome
▁imposing
▁negatively
▁packs
▁viktor
▁anymore
▁marshes
enheim
▁0000–00)
▁analysts
▁wii
▁joão
▁tess
▁octave
▁consoles
▁corrections
▁voluntarily
give
incre
▁forks
▁école
induced
▁wavelengths
▁vet
▁deng
▁bonnie
▁fluids
screenplay
▁mcdonnell
▁culturally
endorf
finder
▁mecca
▁mercen
adan
arks
▁ida
▁milestone
ukh
winners
sever
▁bhutan
▁levant
▁authent
▁analytic
▁champagne
▁rainforest
shadow
▁flock
▁venom
▁coinage
▁merrill
▁exploits
▁waterway
television
▁caste
▁metz
▁peggy
▁bremen
ropshire
▁atkinson
▁telescopes
▁civilizations
▁burr
▁harley
▁possessing
ancer
▁tiff
▁bafta
▁volvo
▁shower
lessness
▁stainless
rally
wreck
▁transparency
oza
▁gow
ocrat
▁dice
▁plank
▁fatigue
▁lawsuits
▁meng
▁woll
ivorous
▁intensified
▁colloquially
▁fairfield
▁treasures
igon
rones
▁desmond
southeast
▁abruptly
▁bethlehem
▁terminate
ús
▁mét
icker
▁bere
▁byte
▁canopy
▁mohawk
▁thwart
▁virtues
▁pasadena
▁rhodesia
fuel
▁wies
▁ghetto
▁motive
department
▁fis
▁mimic
▁sparks
ellington
▁*0000–00
?",
jur
▁belize
▁landslide
)".
▁nails
▁soyuz
▁luftwaffe
▁navigator
alom
dell
▁asi
guards
▁grief
▁somali
rach
▁sears
▁dillon
▁lahore
▁foothills
▁contention
avo
hein
▁usur
▁neumann
dim
pies
▁sno
agawa
▁baths
▁ecumen
▁ensued
▁schleswig
▁motorcycles
chio
drawn
▁cain
▁forfe
stephen
▁ultrav
efficient
▁meredith
▁ull
urable
▁centralized
grup
orthodox
▁bicycles
▁volcanoes
eliz
weeney
▁proves
▁robbie
▁pets
walker
▁baritone
▁stimulation
lob
erian
itored
viate
otiation
▁angered
▁athenian
▁authorised
canal
▁kuala
▁becker
▁improvised
users
▁stef
▁ankle
▁podium
▁legitimacy
inist
▁lowering
graw
hner
▁sylvia
▁evidenced
▁tracts
nant
▁jelly
▁shirts
▁helpful
▁evenings
atter
▁moul
▁decks
batt
▁banning
architect
▁consulted
ayev
▁anest
onc
▁negotiating
crop
▁dorn
lation
▁passionate
iak
walter
▁brough
▁themed
▁astronomers
▁christchurch
tele
▁defer
▁cigarette
uddin
▁logs
▁mesh
storey
foreign
▁lesson
▁withstand
▁czechoslovak
-0000)
▁avery
▁hutton
ún
▁tosh
▁niche
▁conducts
▁adherents
iard
virt
▁wedge
▁dispers
▁signalling
▁paramilitary
edd
fab
▁mai
▁motifs
▁attorneys
▁reproduce
▁ether
▁remnant
▁mercenaries
umer
▁kuro
gregor
igated
▁hostages
jr
▁letting
▁searches
▁unemployed
▁migrate
▁witches
▁wm
cile
▁riz
▁glaz
▁roadway
▁radicals
kow
▁sewage
oj
abar
isman
woods
▁elbow
▁bernie
frequency
ouncing
enet
▁mounts
▁walters
▁ambitions
▁categorized
gis
mez
▁hö
▁mok
▁scarce
▁imperfect
▁otis
blind
lemagne
▁gujarat
▁pageant
▁doubling
▁nomenclature
▁quarterfinals
dehy
▁seaside
executive
▁praising
▁reginald
▁authenticity
▁subdivisions
▁wł
achy
▁ethel
▁raided
▁electrod
▁stephanie
hair
▁yus
▁hendrix
adventure
▁atlantis
uns
antz
▁huff
▁feminism
▁sarajevo
▁sized
▁disreg
▁falcons
submarine
▁comedies
zko
▁dimit
▁amphithe
▁muscular
▁bp
▁notices
▁aes
gorod
nea
▁goa
▁nug
strip
▁dots
opatra
▁straightforward
▁ais
▁cuc
▁sinc
▁coats
▁croydon
▁advocating
aque
cala
brazil
▁towed
positive
▁phy
▁pants
▁laguna
▁proceeding
hyn
▁dae
▁eut
▁euler
▁ostens
▁postseason
ellular
qui
▁__
▁leaked
▁bahrain
▁betrayed
coast
▁ninety
▁canadiens
float
skins
▁boasts
▁tactic
▁analogy
▁persisted
▁harassment
▁optimization
▁anom
▁musicals
▁expectation
ector
wings
▁anita
▁rehearsal
▁alv
▁amé
rophe
▁mori
▁cyrus
reading
▁mutiny
▁projective
▁midi
▁halluc
▁caldwell
▁melville
▁có
abody
▁ambush
▁newsletter
▁transforming
▁magnesium
ikov
lemn
amide
ushima
▁sickness
▁constructions
lear
léans
travel
▁**00000
▁requesting
▁jesuits
▁sacrifices
▁tarn
dezvous
probably
▁novella
▁vicente
▁saul
▁conspic
▁lucrative
▁perl
▁telem
▁dí
▁spartan
▁checking
'',''
members
histoire
▁avenues
pox
uko
▁mirage
tie
akan
riot
▁medley
pon
cube
file
▁gim
▁ezra
▁gastro
▁chestnut
▁jard
▁trader
sville
▁interl
▁captures
▁adjective
▁ff
▁skies
▁collects
▁paso
▁slov
content
▁scroll
▁pointer
▁quietly
▁severed
▁sous
▁succ
▁cyclic
▁travellers
▁marlborough
▁guthrie
▁sanctioned
eles
▁maud
endish
▁coherent
▁zurich
▁abdominal
▁confusing
▁recognizable
fear
▁joc
▁bordeaux
portug
▁engag
▁sheer
counter
▁typhoon
lithuanian
▁gladstone
would
▁cory
▁tattoo
bom
czy
imum
tell
▁shia
▁apples
▁sympos
▁liberia
▁symbolism
▁wrestlemania
event
ophren
▁elias
▁scenery
▁siemens
▁skyline
▁courtesy
▁shelters
bri
loe
▁xer
aille
▁fines
▁eroded
▁caliphate
▁inventions
▁thanksgiving
fed
▁keynes
ractical
▁libretto
▁secondly
▁dysfunction
pul
▁scrutiny
▁migratory
▁bok
▁hards
▁viewpoint
▁programmed
iris
▁kön
▁soda
▁faber
▁vengeance
endra
▁equivalence
▁''*
isexual
▁headmaster
royce
▁chaplin
▁openings
▁monitored
alsa
▁herz
▁seph
▁elton
▁sacks
▁neoclass
crest
▁angelo
querque
onential
▁clapton
▁plumage
▁headline
▁franciscan
▁responds
▁vibration
▁rhyme
activity
▁nach
▁recom
▁ipswich
-,
dial
ijah
tones
campus
▁curvature
▁positioning
inen
ismo
▁mariners
▁reactive
▁transmitting
reb
▁bf
▁maw
moving
▁jurist
▁wanderers
centre
crew
gion
▁mackay
▁operatic
gc
'),
jimmy
▁vind
▁lubric
▁psychiatrist
▁munitions
jazz
▁fuz
▁proponent
▁hospitality
+0
andan
▁razor
▁conglomer
▁inflicted
▁egyptians
▁selections
▁scientology
vac
▁hoc
▁nep
▁jeep
–0000)
▁flair
▁sweeping
rer
flin
mina
▁leh
▁heil
income
▁engagements
bj
▁dich
▁weimar
▁tramway
▁alloc
▁spoof
kha
ifix
opolis
stellar
▁olympia
atan
▁stig
famous
▁repeal
▁avalanche
▁marketplace
▁needing
▁notions
▁righteous
▁ornamental
doors
ysław
▁bots
looked
▁aperture
▁coma
▁fins
▁lapt
▁logar
▁sabha
▁expose
▁newborn
▁medicines
▁mott
unction
▁jasper
▁broncos
▁randomly
cely
ovis
spect
▁arid
▁spies
▁hawker
▁enthusiast
atius
lewood
▁hayden
cée
sept
▁roofs
▁mushroom
abas
worm
▁eun
schaft
▁bison
▁gavin
liberal
▁tumors
▁allegheny
▁partisans
eens
indy
ongs
opers
▁deserted
▁ignition
▁bonn
ân
▁formidable
▁cylindrical
äl
▁hui
ignant
▁emitted
▁antibodies
arde
ichy
▁rer
▁wad
▁teng
▁bragg
▁bismarck
▁rous
▁kling
▁awaiting
▁formulas
▁somebody
▁epoch
▁undermin
▁collaborator
▁ritch
▁inverte
▁intervene
▁royalties
tting
▁gour
').
▁cah
abd
blade
▁reel
▁disturbance
▁**0
princess
▁promulg
electronic
isitions
security
▁ascension
army
parad
▁pembroke
oufl
▁kras
▁joker
▁embark
▁relaxed
nee
▁ingen
▁ventilation
haz
▁bowen
▁gospels
▁ceramics
hya
acerb
▁sire
▁waver
secondary
▁sip
▁anthropologist
evol
▁orthog
▁cyclist
▁diversion
▁banc
▁bruins
▁retract
▁miracles
▁unauthor
▁nominally
ibor
▁lur
▁tull
garden
▁flaming
▁traverse
▁rotterdam
▁gó
irot
▁yesh
▁semantics
icum
eshoe
▁arrests
▁schult
▁everton
▁trenches
sz
bou
bug
route
mainly
▁lauder
fing
▁wheelchair
▁undertaking
▁carp
jacques
▁motown
▁seizure
▁fracture
hare
▁knots
▁adolph
▁guarded
▁delicate
bly
fifth
piano
▁scro
▁flores
▁nerves
▁deutsch
▁educate
▁willard
▁revisions
▁wir
▁(00.000000,
ckl
-0''
▁cen
▁hobart
▁mechanic
▁nike
▁beckett
▁breakup
▁dominic
hud
kenny
▁lowland
▁solvent
dic
▁alkal
▁impaired
▁absurd
▁joanna
▁tackles
anka
▁baz
▁slated
▁locking
▁implying
▁stranded
▁equatorial
jö
%),
zee
aira
funk
ancient
▁spiders
▁destined
kings
udeau
▁monoc
▁scanning
▁recol
▁hirsch
▁lightly
▁shareholder
▁analyze
▁baptized
▁counterattack
▁nud
▁kear
▁000''
▁marseille
▁disneyland
▁replication
▁batter
▁sniper
▁disruption
▁elevations
▁jays
▁margins
▁definitely
flor
uchs
alpha
inker
motor
▁sammy
iferous
▁entrusted
▁economical
▁shropshire
zzi
▁pais
▁rodeo
▁parole
▁fixture
▁trivial
gay
phs
▁transforms
oden
against
▁tucson
▁vishnu
▁midfielder
xe
▁lea
chain
▁scaled
▁paterson
▁pornography
dose
ilus
▁recipes
▁experimentation
cco
alese
drama
▁glove
illaume
▁suites
aneously
▁postmaster
)—
bolt
spin
▁zer
▁daup
▁erad
▁ryder
▁swansea
▁lombard
▁moroccan
▁intending
▁relocate
collegiate
▁remembrance
▁epa
▁parab
▁warden
▁matilda
iran
▁puzzles
argo
▁implicated
▁biographies
hp
auri
adium
finger
▁blonde
▁steamed
▁warwickshire
vat
maur
▁boles
▁elaine
gab
▁camil
▁thessalon
▁envoy
alities
▁darren
▁mesopotamia
▁ausp
▁kite
▁cones
▁muzzle
▁synthesized
▁proliferation
▁whitman
vr
wonder
▁cough
▁stimuli
thir
▁nip
▁idle
▁paus
▁dixie
▁sided
▁exacerb
mort
▁sync
quarter
▁congen
anty
▁grum
▁apoll
▁moran
▁steals
jesus
▁frey
systems
▁furnace
▁grossed
▁affluent
▁reluctantly
dyn
odd
ioni
itous
macht
▁fused
▁sewer
▁zhong
▁crowley
uten
▁prc
▁foil
▁******
▁peabody
▁vacated
▁efficacy
▁pronouns
▁flam
▁elena
▁turrets
▁wherever
▁prevailed
▁commemoration
▁zombie
▁descriptive
vara
▁ston
▁motives
▁seville
▁oppression
acus
jani
itively
▁enjoying
▁scheduling
chanc
▁foam
▁legions
▁drummond
▁distributing
fen
nius
▁zig
▁cows
▁zeta
ributed
▁vassal
▁overlapping
atis
▁immort
pleasant
tenstein
olt
▁pd
▁damon
▁borneo
▁fleets
▁transmitters
▁nikola
▁pumping
drum
▁ike
▁mcfar
scottish
▁coating
▁evolving
orig
▁fife
▁magnum
elizabeth
▁pentagon
▁manipulate
▁germ
manned
▁lining
▁commend
▁bulb
▁herbs
opoulos
▁recipe
▁rwanda
▁sinister
▁fok
▁vip
format
▁sweat
▁comedic
▁salaries
▁surfaced
insk
▁kost
▁sami
▁stero
▁oyster
▁bernardino
▁collaborations
agree
▁rund
unknown
▁precedence
▁transitions
sit
▁freem
▁uttar
▁repuls
giene
▁ching
▁booster
▁tottenham
▁misleading
▁barlow
▁mclean
▁polygon
▁sylvester
ranked
▁embroid
▁overland
▁governorate
belie
▁tito
▁atten
▁disgust
▁mckinley
▁ith
atian
▁preferring
alien
mixed
▁rests
▁encouragement
▁esther
▁motions
▁orbiter
ijn
anity
digit
vance
heroes
▁palestinians
▁haj
▁sorcer
▁strained
▁articulated
maj
▁perme
▁sinai
▁cinemas
▁delivers
hany
▁tomas
▁barric
▁glider
▁craters
▁automation
belt
chenko
▁enrich
ovascular
▁amounted
▁chag
▁teddy
▁donors
▁sumner
▁quintet
▁mba
▁brendan
nit
cote
ynthesis
▁dowager
▁executions
▁negotiation
▁hypothetical
▁(“
▁alec
▁kass
▁dalmat
▁remixed
▁vascular
heaven
icable
▁shake
▁napier
▁rematch
▁schuster
▁ea
mills
▁euch
▁yuc
heter
christmas
▁playback
▁undefeated
▁(0000–0000);
awak
▁odi
▁baja
▁ramsay
▁excommun
▁alexandre
domen
featuring
▁subsidies
▁homogeneous
.00,
dean
gling
▁00000.
▁algerian
ulam
▁illy
▁chicks
▁spruce
▁hellenistic
▁webber
sla
essive
iguous
▁deple
existing
▁probation
▁и
wold
▁rao
ondheim
▁alison
▁karate
▁commodities
▁ascend
▁ignore
partement
▁wolverine
▁willingness
estine
▁pollen
▁walled
▁encompassing
▁quo
▁burnett
▁altitudes
▁extingu
▁reformer
anz
artist
▁localities
help
▁badges
ept
▁bia
bread
honor
▁albu
ersonic
▁malone
affected
▁grateful
▁amenities
hyd
▁hatt
▁iter
▁sidd
▁elves
▁overhe
▁yielding
gyz
clin
▁hydr
▁pash
▁bunch
manager
▁outspoken
▁aerodynamic
▁volunteered
▁grandparents
vice
▁bravo
▁federally
▁suppliers
avis
▁obli
▁pennant
▁revolutions
▁ultraviolet
ireann
▁divid
▁unint
▁nomadic
▁appealing
mechan
▁entertaining
carp
▁ork
▁dare
▁disrupted
▁strasbourg
sohn
▁kurdish
▁causeway
sid
▁advisors
▁airliner
▁symphonic
▁banquet
▁highness
▁cretaceous
▁limitation
▁microprocess
jana
arina
inkel
▁goats
▁computed
pronounced
morning
▁ignoring
jee
asim
▁mif
▁traps
▁peppers
ucid
▁elig
eningrad
▁disagreements
allah
▁llan
▁sims
▁thou
▁doris
▁undes
▁runoff
▁mosques
▁sociologist
pink
▁serum
▁wooded
▁novelty
▁pog
maria
▁nuns
▁turmo
▁anatolia
▁wesleyan
▁technician
▁prescription
▁prow
▁whal
▁000-0
ventions
▁natalie
zef
utable
changes
▁neptune
▁adulthood
▁babylonian
▁transformers
▁una
achev
▁komb
emaker
▁dracula
kong
▁apex
atable
robe
undo
▁"0000
▁exert
▁française
▁schizophren
▁rah
▁anglia
▁counseling
sides
▁fries
▁alp
iosity
▁heavenly
▁dependency
kle
inde
▁aaa
▁mia
▁manoeuv
▁deception
▁dramatist
api
agent
▁00%;"
▁brunei
führer
▁abram
▁indict
▁martian
▁outreach
bald
▁boll
▁ecle
ishers
▁bourne
▁richter
▁dwelling
▁listener
ellate
▁harrow
▁solemn
▁sherwood
▁nickelodeon
endi
ipes
▁auf
▁fayette
▁contrasts
erty
▁petit
▁verdi
ursions
▁clarkson
▁frontman
▁suk
▁schl
▁alvin
derived
▁exceeds
▁hazards
▁welding
iton
chwitz
▁rotated
▁epip
▁gild
00,000
▁jakob
▁geologist
▁grams
▁localized
▁baud
▁pinch
▁attacker
▁indicators
oye
▁ups
▁verified
▁actresses
▁violating
▁trajectory
▁frogs
▁spars
▁herring
▁weaving
orb
▁kis
▁marries
▁auspices
▁forthcoming
cord
▁kiel
▁mined
▁tulsa
▁severn
▁carbure
appointed
▁headlines
▁topography
▁industrialist
▁brat
▁gregg
▁enclos
▁pestic
▁stupid
▁quentin
▁confronts
▁maze
▁vague
▁penetrate
pred
▁amor
▁rink
violent
▁humble
▁astroph
▁vh
asco
▁hated
▁reyes
perhaps
▁populace
▁hertfordshire
▁mv
▁rae
balance
ln
été
emperor
▁kelley
critical
▁pockets
▁landfall
ocal
▁narr
▁gemini
▁tariff
▁northam
▁spielberg
acia
▁sco
angan
▁haul
▁twain
▁lending
▁palaces
▁festivities
rn
mara
▁cair
▁fuck
▁banjo
ensional
▁removes
▁chá
▁solv
▁swind
▁faults
▁burrough
▁simulated
▁admiration
aean
▁kau
atoga
▁trombone
▁imitation
eca
▁whaling
bett
cand
ikon
▁kou
▁río
▁sime
▁megal
gean
▁::*
▁wim
▁trash
▁abuses
▁mortimer
▁antim
▁coloss
▁$0,000.
▁persians
▁commencement
ibur
▁ate
▁chromosomes
lest
▁québec
▁hilbert
▁gunpowder
▁multiplex
zar
beam
bergh
▁facel
▁oilers
▁brennan
▁hygiene
▁repression
▁charlemagne
umba
▁euros
▁magna
▁trotsky
▁trudeau
lle
ikan
ovsk
xxx
▁sey
▁hilly
▁indul
▁memorandum
’.
▁kabul
▁**0000
▁indefinitely
steps
▁wonders
iate
▁spices
▁socrates
▁thinkers
bock
swiss
▁perpetual
erd
▁mens
▁peps
▁roch
verted
▁hopper
▁futures
▁gibbons
▁spanned
▁accusing
▁feasible
▁vigorous
▁constituents
bd
rather
▁detach
▁thieves
▁blackpool
zhen
▁tandem
▁wither
▁blowing
▁ensures
cambridge
▁contender
▁practised
▁subcontinent
sleep
▁evenly
▁levin
▁collided
▁systemic
reys
▁willem
▁neutrons
cbs
ierz
▁vigor
▁statistic
kus
aski
-00''
▁hahn
▁algon
baptiste
hispanic
▁rendezvous
▁maure
analysis
▁wichita
▁arbitration
athi
▁clover
▁cottages
▁insistence
beau
▁jov
▁buick
bridges
ometers
▁(00.0%),
▁graffiti
▁theorists
aras
gray
funded
illust
▁burger
▁clinics
▁vicious
▁policeman
▁exponential
enia
argent
victoria
▁intersects
▁elek
▁packets
▁policing
ikos
▁heret
▁stokes
▁stresses
oqu
seek
cruis
▁alfa
islamic
▁inline
▁remedy
françois
▁prophets
classified
▁captained
▁hyderabad
▁nightmare
▁gettysburg
norman
▁kolkata
▁convictions
▁ily
▁resh
▁dissolve
▁deviation
▁intercity
approximately
▁incompatible
▁cue
▁earnest
▁refinery
▁membranes
▁reservoirs
▁sich
▁(0.000
▁spouse
▁agrarian
bars
ésar
▁seine
ablanca
▁pollin
▁tripoli
▁antennas
▁mauritius
▁mccull
▁brewers
▁pivotal
▁expecting
▁acquisitions
▁*,
anche
▁....
▁lavish
▁lively
▁intrinsic
▁vegetarian
▁intercourse
▁preserves
▁woodstock
neur
▁heres
▁bounds
▁capped
fourth
hrmacht
influenced
▁rejecting
▁unreliable
▁yahoo
▁repeats
▁packaged
▁sicilian
▁saturdays
▁blacksmith
shop
alog
▁turmoil
adas
▁yer
▁steamer
▁orthodoxy
▁textbooks
▁projectile
▁clot
▁minh
▁bravery
▁threaten
▁participates
fk
▁framing
nich
ietta
titan
▁laus
▁amass
▁hiber
▁slender
▁gallantry
▁southward
▁subfamily
▁amalgamation
abo
▁wren
ulence
▁blows
▁libyan
▁eduardo
▁discouraged
▁endorsement
phr
▁00-00,
▁citrus
illusion
▁spirituality
zai
▁roh
▁gala
▁tect
▁martínez
▁practitioner
cheon
▁booklet
▁camoufl
elman
ouche
▁sieg
▁ritchie
undi
▁cil
ánchez
▁insertion
▁wentworth
▁derivation
▁rothschild
▁ambassadors
udd
▁mup
▁urdu
▁shortages
independence
ipur
oses
▁ska
rosis
▁stag
▁garry
collect
▁behave
▁polling
acan
gene
interest
▁glorious
▁initials
(0):
iona
omers
▁quan
▁yuri
▁linden
▁addison
▁conscription
▁alta
cooled
▁wally
▁porcel
▁ballard
▁clauses
▁flavour
▁arranger
▁harvested
▁parkinson
▁calculating
▁tyson
esterday
▁calhoun
▁admissions
▁fictitious
▁frustration
▁giac
▁incentives
▁theta
▁usher
▁ler
▁heming
▁(0,000)
▁revolver
▁fia
ename
ograms
dancing
itudinal
▁reigned
▁robotic
▁sounded
▁surgeons
▁programmers
igham
▁botany
▁reddish
▁explosions
▁tuf
▁drey
republic
▁contrasting
▁lach
▁wrath
▁sighted
но
gham
▁00(
▁sark
animal
conduct
▁walnut
ennis
▁aviator
▁exposing
!",
asser
emiah
▁heck
▁brant
▁trams
▁photon
▁stevie
▁clashes
▁corrosion
▁elongated
assi
▁hangar
▁má
studio
▁farrell
▁authorization
éné
▁wwii
▁barns
▁celtics
▁extrater
?'',
future
▁mixes
▁usable
▁modelled
unci
▁nils
▁cypress
ffen
▁olga
▁stil
▁cohes
strange
▁mcgraw
▁inadvert
▁searched
clar
uffs
▁hybr
▁briggs
▁cochrane
▁longitude
edes
▁stony
▁sawyer
umination
▁agreeing
▁conceded
▁dyke
▁inns
▁resin
▁histori
▁vaux
planet
▁javan
▁anaheim
▁endowed
▁greeted
acceptable
▁conductors
▁installment
toy
▁harps
▁vance
00000000
▁uzbekistan
▁geo
▁ness
▁leafs
respons
▁pardon
▁jou
toronto
▁assurance
▁sediments
▁ecumenical
▁fashionable
thon
▁wee
▁lifts
▁almond
▁maltese
▁bisexual
▁eighteens
▁semifinal
"/"
marg
▁academia
▁cavendish
▁distorted
▁standings
▁surrounds
tsch
mario
▁distinctions
▁fits
▁shrimp
▁gregorian
▁rye
▁claw
▁mith
changing
▁ventura
▁subsidiaries
mode
ophones
arid
▁backbone
▁distract
▁snowfall
idic
▁oph
▁dodd
▁tyre
▁gladi
▁tying
▁braking
▁entrances
express
▁berber
▁mayors
▁competent
liv
olym
▁ctv
tings
▁greenville
bia
▁roe
islaus
▁transverse
ibe
▁moldova
▁disagree
▁schedules
▁cale
▁demet
respect
▁ammonia
▁(00.00%)
▁nex
▁depress
▁haf
▁amin
▁vedic
▁drains
▁endings
▁counters
▁gertrude
▁mohamed
▁entertainer
▁trojan
▁sardinia
fits
enham
▁dall
fashion
▁detain
▁regents
▁reversal
orro
▁fuse
equipped
▁repertory
▁authoritarian
reve
▁gaut
▁sophom
▁inclusive
ód
alu
▁fah
▁chis
▁sabre
▁northumb
▁transgender
▁interception
▁rossi
onation
▁guiding
▁yaz
▁aubrey
▁skater
cklenburg
▁priorities
umbling
▁salute
▁emerges
hora
▁rosenberg
fired
▁boiled
▁schoon
▁digitally
▁gc
▁kj
▁foundry
▁rewards
▁beatty
▁centro
▁denying
▁fragile
▁vu
▁ufc
▁mounds
▁ejected
▁assertion
▁maneuvers
▁hib
▁jut
▁gigs
weekly
▁eliza
▁fairs
variety
▁discern
▁goodbye
▁useless
▁isotopes
yas
▁rö
oths
absol
▁0.00,
▁scher
▁fascism
▁superstar
▁buckinghamshire
▁fam
renal
▁ostensibly
lf
▁tard
should
▁wessex
▁burroughs
▁albuquerque
▁archeological
▁swap
berlin
rillic
▁redskins
khan
ranger
▁biomed
▁header
▁curator
▁gunfire
▁numerals
▁volatile
▁orchestras
▁enqu
▁nath
▁olsen
▁arrays
▁obstacle
▁anticipation
next
poor
▁awk
camer
olomew
▁jericho
laus
▁dump
▁rajas
▁dement
▁touches
▁eclectic
▁trunc
▁presentations
▁lambda
▁cruelty
▁medicinal
volt
▁knees
▁peach
▁pluto
▁carbonate
orc
▁uy
ocon
▁xian
reilly
uaries
▁glover
▁sirius
▁handsome
▁cush
sexual
▁woo
▁repay
▁sentinel
▁bw
myth
arettes
▁shades
▁dragged
▁credibility
inho
▁holm
roller
▁provost
▁resurrected
amus
fasc
growth
▁lamar
▁logos
▁tajik
▁shaping
▁narration
▁organizers
tru
▁
e
a
t
i
n
o
r
s
h
l
d
c
0
u
m
f
p
g
w
b
y
,
.
v
'
k
*
-
)
(
j
"
x
z
q
:
–
%
;
/
é
#
$
—
&
’
|
!
á
=
ó
ö
ü
í
?
”
“
+
ō
ä
2
è
ā
_
£
ç
ł
š
°
ć
а
ñ
о
ø
ú
×
ã
и
č
е
−
‘
ū
â
н
α
à
